05008
07004
07003
03FF4
09FF6
01008
19FF5
0BFFF
18FFB
1E008
0100D
1D00E
01FF5
0E004
0500B
0CFFF
1A007
18FF5
1D00E
0900A
02FF6
0200C
17002
1800A
1700A
0100D
15009
1BFF8
0D00B
1AFF9
00006
04FFF
0B008
15FF6
08FFF
06FF5
19FF8
15008
15FF5
1BFF8
03FFE
02FF8
04FFA
0100A
1A00A
1B009
07FF8
05003
14FF5
01000
00004
1CFF7
03FFA
16009
03FFD
06003
1E00A
01001
1B006
0C00A
12FFD
15FF6
06FFA
07004

