3AFF2
33008
0600D
0FFFC
09FFF
0800D
02FF2
0BFFD
04FF7
3BFFB
3C007
33006
0DFFF
3A003
34FF2
0EFF7
38FF6
09008
0A00E
3CFF2
0500A
09FF2
04FF3
08010
06009
04FF6
3F004
3F011
03FFF
3EFFE
08FF5
3B005
0DFF3
0B000
11FF8
0900A
0000F
0EFF9
3AFFC
00008
06FF6
09FF8
35FF5
30FF3
3D00F
04002
36000
37FF4
07005
3D003
04FF3
0700D
0F003
3300B
0DFFB
04003
0FFFE
06009
3C00E
0000D
37FFB
0BFF1
0300D
37004
3A005
3BFF1
07FF4
06FF2
01001
3CFF7
35FF8
35FFE
3F00A
38FFB
0B001
02FFA
3700E
03FF7
36005
39003
01007
3A000
35009
0D009
3E004
07010
09FF7
09FFE
08FF1
39FFE
02FF8
32FFB
0FFF2
3A004
3900A
08FFF
3CFF7
3A010
06FF6
1100C
09003
39009
11FFF
34007
11007
0DFF4
32001
01FFD
0CFFE
35001
3C00F
3900F
11FFC
34FFF
08000
37000
08007
0CFFD
37000
04006
37FF4
02FFF
01FF8
34005
3100A
0800A
03005
32FF9
0A004
0F007
06FFF
0FFF9
3000A
37011
0FFFA
3FFFF
04FFB
3300E
07FFB
0FFF6
07FFC
08FFA
05003
11FF9
35FFA
0BFFB
34007
06FFB
11FFE
08FF3
3FFFB
03FFB
00FF2
3400E
3FFFC
0D006
37011
0C010
31FF8
3600B
3500C
3EFFC
04FFF
39007
3EFF7
00007
03001
36FF5
3700A
3E00B
36FFF
02FFE
34FF3
1000E
10FF4
39FF2
3A00F
0B00D
07FF1
0AFF2
3C00B
1000B
34002
04005
3A00A
11FFA
05FF2
0FFF8
0DFF5
08FF7
37011
07FF4
32FFF
37FF1
0FFF5
3D011
0100A
11FFE
0900A
3700F
35001
33FF5
39008
10007
0CFF5
33009
10FFE
3800F
03FF3
07FF3
0200C
0E001
01FF8
32FFE
36FF2
37FF3
05FFB
04002
10008
11FFB
0700E
3A000
0E005
0700A
3D001
00010
3800E
3FFFA
0A009
10FFB
3E00F
3B006
37FFD
0700D
3300C
00009
10FFC
32FFB
32009
3D00F
3600C
0D00E
33002
05008
0E000
0500C
33FFC
31FFC
3AFFF
09008
03FF4
0EFFA
08000
10FFE
3CFFD
0CFF5

