00FF7FFD00AFF7006FFB
01005007001FFF000FFA
1E008FFD00600200B006
04008FF6FF7008FFDFFA
1A004FFD009005FF8007
1D00A004FFC004FFA005
1DFF6001FF9FFC008000
18FF6001006FFF005FFA
1FFF9006005005009000
1E000002FF6002FFDFFD
04006002006006FF8006
01FFDFF7FFD00B001000
1BFFDFF800A007001FF7
1E002001FF8003FF9FFA
02003005FF800AFFCFFD
1E001FFCFFB008002003
05FFF003FFB001002006
00003FF700200AFF9000
01FF7FF7004FF7FFE003
18FFB004001009FF7FF9
0600400AFFFFFA003FFD
01FF6006FF7FFF006FF9
1AFF9005002FFCFFCFF7
1DFFE000004000FFDFFF
19002FF9001FFBFFD000
19FF9FF8FF6007FFB000
1AFF9FFF008000FFB007
0400A009FFC00AFFEFFD
00005FFF004FF7FFE004
1E009FF6008005002FFB
00FFCFFAFF9FFEFFA005
18FF9FF9008003FF9FFA
1CFFAFFA007FF9FFA003
07000FFDFFEFFD009004
1AFF8005FFD004002FFA
17001006007005000FFA
04FF8005008007FFBFFC
03FFD004FFCFFBFFCFFC
03FFC007000001FF9FF8
02008FFDFFEFFE002FFA
00FF8FF7008FFAFFFFFB
05009009005000FF8003
07009001FFEFFA007004
1DFF7002FFA007FF8009
1E00AFF8FF8006007FF9
1EFF9008FFD000008FF9
00FFC000FFA001007000
1EFFAFFAFFFFF6007FFA
05FF8003007FF7FF6001
01000003001001003FFE
05FFA00BFF8002FFA000
1D008002008FFC007000
1C007003FFD002007000
1AFF9FFE003007FF7FF7
0800800B000FFE004003
1E004009000FFF005001
1B003001FFDFFA004007
18FFF003007FF8FFDFFC
18FF6007FFA002FFBFF7
00007FF9FF7FFB002FF8
1CFF6FFF002FFAFFFFF8
06002FFDFF7FF7005001
07FFC004FFB00A00AFFF
00002006FFEFFC006FFA
17FF9004FFAFFD006004
1EFF7FFFFFF000FFBFFA
19000000FFAFFA004FFC
1A005FFF005005FFFFFF
1AFF9004009004006000
1D003003001006FF8002
00FF8002FFFFFC004FFC
19000009FFF001008007
1AFF6FFB007004FF8008
1C005FFF00AFFE001FFF
17FF8FF9009FFC005001
03002008FF7FFA00AFFF
0000A002000FF7FFAFF7
1BFF8FFF006009005006
1C00AFF7FF7FFD002001
1BFFDFFC008FF8005FFD
1D000006FFB00700B001
02004000002003005FFB
00FFC009FF6FF9001002
03FFAFF9FF9006FFFFFD
00FFA003008FFAFFA000
09006FF900000B000000
0700A009FFC009000004
1C00AFFCFFEFF700A003
04FFCFFA005001FF9FFD
06FF8FFD008FF9007FFA
1CFFD00B008FFE003009
05FFEFFFFFC000004004
04FFF005009FF6FFD008
09FFFFF9FF8009FFAFF7
08FFDFF6FFEFFA002000
1F00A007FFF005009007
07FFCFF9FFA004000005
07004FF8008006006FFF
18003006FFC007004FFC
00FFF00100900AFF9FF8
00007007FFD00AFF9FFD
02008007FFD003002FFE
1BFFDFFFFFAFF9003004
00001FFEFF9FF8007FF8
18008005001000006FFE
0600600700AFF8FFEFFB
07FF9FF8007009FFF000
1FFFC005FF7FFE007009
17FFB008FFEFFA006FFD
02006FF7FF8FFF001FFD
03000FF7FFFFFE000FFE
06FFFFF9FFF005FF9FFE
00001FFB009FFF004001
1D001FF8008009FFBFF8
1E000002FF900AFFCFF9
07001007007000003FFB
1A009004FFB000FF7000
1F001FF7FFB005007FFA
18FFC005FFD000FFAFFA
1D001001004000008005
16008003FFF003009FFB
06008FFD007FF9FF9FF8
04FFB000004FFF002FFD
17FF7002007003004009
1C001003002003003003
02FF700400B002FF6008
01FFDFFD005FF9002FFD
01006FF900300A005008
18000FFEFFEFF8009008
18FFEFFAFFA005FF7FFB
08FFD007006007FF7FFB
08FFDFFAFFB001009000
03005003004008000FFB
00FF8FF7FFA000000006
04FFAFFEFFC001004FFB
07FF7007006001001FFC
1CFFE006001FFC000FFF
05004004005FFFFFA006
05FF7FFB005FF6001FF9
00008FFCFF9003FF8001
1C008002FFF005008FF7
02002FFB002001004000
08FFBFF9000000FF8FF8
02FFA002004001FF7FFA
00FFAFFF007FFB003000
1CFFF005FFBFFAFFD00A
0900200000400000400A
03006007008FFB000FFA
04FF9008000009009000
1E003FFBFFB007FFA001
1CFF7FFF007FF8FFBFFD
08004009FFD005FFDFF7
09002FFB00A009005FF9
1CFFE002FFF004001FF7
03FFC005FFB001FF8008
19000FF9FFE00100AFFF
00000FFAFFD000001003
16FF9FF7FFAFF8005FF8
1EFFD007004FF900200B
17004000004009007FF7
01FFC001FF8FFC008003
18000007FF7FFE008FFC
1F000009FFE00A006FFD
01000FFC000FF8006FFA
1BFFE003FF6FFA005000
1B009FF7FF8FFBFF9001
09FFA008007002000002
00FF8008005FFCFFD001
06006008FF7FFCFF8004
00003FFCFFC00AFFEFF7
1C000000FFAFFEFFBFFE
0B003004006003FF7009
1CFFCFFAFFC008FFF007
1BFFF001FFDFFCFFB004
01FFC005009FFAFFAFF6
06000FF6000FFFFFBFF8
04FF7FFA005006FFC005
07FFF006FFB008002FFF
08FF7FFCFF8003005005
00FF8FF8009FF8003004
15FFC000FF9009FFA004
1F006FF700800BFFF002
06007FFDFF7001004003
1E003004FF800A007005
09FFEFFF005FFE005007
1FFFBFFF001003007006
19009000FF9FFF007000
1AFF8001003FFC000005
0AFFDFFB004FF9000FF6
1900900AFF7006000FF9
05FF9001008005001008
17FFFFFEFFD005000004
06FF8FFF007FFF007007
1D000FFF004FFEFFDFF9
1DFFAFF800A005000FFB
19FFF004FF8004002FF8
1CFF8007FFFFF6008FFB
1F000FF8FFC007FF7009
04FFCFFF009FFC001006
1E009001000FF8FFCFF9
02001007FFD007FF8FFB
1E004FFDFFB005FFBFFD
06005FF9001002004FFA
1EFF8FFD001FFFFFD000
04FFA007008000FF8FF5
08000003008FFBFFFFFF
05FFBFF7FFCFFBFFDFFE
0100000900600AFFBFF9
18FFA004FFA005FF7009
02FF8009FFE002FF8FFD
04FFFFFDFFAFFEFFAFF8
1CFFD001FFD002000FFD
18000003FFEFF9001002
1B007004003009009002
05001003FFEFFAFF8007
08FFAFF9008005003FF8
1D004000FFB008008FFB
08FFC004007FFA000009
00006009FF9FFEFFB00A
06002008004009FF8FFE
01FFE007FFBFFFFFCFFF
09002001005003FFBFF9
18003007005006FF9FF7
1DFF9008003FFB003005
1E000FFAFFC002FFEFFC
1C008000FFCFFB005FF8
02001004009FF9FF8FF6
0B000FFC002FF9000001
1C004FF9FFAFF9007008
16009FF8007FF900600A
03007FFDFF9008FFE000
0A005FF7FFCFF9005FFD
09FFB008001009003000
0A000001008FF8002FFA
09FFF000FFE008FFE002
07FFCFFE004FFD002FFE
1AFFEFFAFFC000006FFF
02006000007FFFFFD000
1CFFDFF9008FF9005FFF
07004FFB005FFD007009
1E00AFFD00900A000003
00FF7FF8FFD001FF7FFA
03000001005005000FF5
16007FFE005FFD002003
1E002005000FF9000001
19000FFD003006FF8006
1EFFA000FFFFF9FF7009
18FFCFF6003FF7008007
08007FFE008000008000
0B009FFAFF8007FFE001
0100100A006006FF8009
16FF7001FFE005008FF5
0000800000B008FFEFF9
02FFFFFFFFD000000FFB
08FFA009002FFFFFE009
07003FFE00100A008001
01FFC003FFEFF9005007
17007FF9FFBFFD007FF7
03004000FFB001003002
06002FF9007FF8006009
01FFAFF7FF7FF9003007
02FFD007FFDFF9008000
17FFEFFE006002000009
19FFFFF8005FFD003000
1B004000FFC006FFD002
04FFBFFDFFDFF8FFCFF5
1E00200AFFA008004000
1CFF800500100AFF9FFE
04002004FFB004003FFF
1FFF9003FFD008FFAFF7
1D009007005FF8000FF5
1EFFE003FF900A006002
08FF9FF8FF9FF7FFBFFD
1FFFE002FFBFF9FFB009
1FFFFFFCFFF007FF8007
05FFE007FFCFF6FFC006
1DFFFFFCFFAFFBFFA003
1A000FFDFFBFFF004FFC
1FFF6009002FFBFFD009
1D000FFFFFDFF7000006
05FFAFFDFF8FFDFFAFFC
1BFF9001FF8FFFFF7001
1A005005FFE005008008
18001FF8005004FFAFFF
1FFF8000FF7FF9FFA009
17006000009008002002
1A001007005006000003
1E006FF9002FF6FFCFFF
04FFDFF8FFB001004FFD
00FFC004FF7FFC000008
1DFFFFFF004FF8000FF9
04009FF7FFF000FFEFFC
1D000FF6001FF9FF9007
03FF6002003009000004
00FF8001FF8003000FF9
00FF6FFB003FF8FFF004
0A00500A00400AFFCFFB
06FFD007FF8FFC000007
0B001000002008001FFD
06004FFAFF8FFAFFAFF8
08002000002FFAFF800B
0000B004FFD003009002
1A002001006002FFEFFE
19007009FFAFFEFF7FF8
08003FF7000FF7FF9001
0700800400A008004005
00008005005FFBFFF000
17001001003006001003
01007FF8FFEFFA004003
19FF8FF8004FF7FFF004
01FF600300AFFE006006
1A006FFC002008FFB006
1BFFF007FFCFFF008FFE
1EFF700B002003FFB003
07FF7FFD00A00AFFE003
1F005FFEFFF00AFFD007
1A003FFDFFFFFDFFEFFA
00009FFFFFCFFC001003
1AFFF007FFA006FFB004
1E001FFDFFC00200600A
06006FFAFFE00A009FFB
08003FFC00800A001FFF
08FF9FFF009004006008
1CFF700BFFD005009FF6
02FFA005FF700A003008
1E008001001000FFF005
1FFF8FF9006003FF8000
18FFB009005001FFE006
05002004000FFCFFE001
02001002000FFE002004
01FFEFFDFF7FFC000007
05000007004FFCFFE004
08006FFA004001FF8008
09004004008FFA007004
16FFCFF9FFF005FF9FF9
1FFFEFFF000008004FF5
06FFEFFD000008005002
07FFE006003003000004
00000FFF002FF6000FFA
01009000005FFD009FFB
06001FF6006002FF8002
01008FFBFFF007FFA002
0AFF800BFFBFF7005001
00FF9009001FF8000005
07000006000FFC000007
0A004001FFEFFEFF900B
18009003FF8004000003
07FFB006008FFF003FFD
0BFFB000FFA00AFFCFFC
1D008000FF8FF8004FF8
02FF8004FF8009000000
07FF7009007007008FFF
09FFE00100200900000A
1A006001FFC001002FFD
0000A005FFCFF9FF8007
19001FF7003008FFC000
07009002002009007FF8
03FFC00600BFFFFFEFFF
05000003FFB002003000
07009001FF9004000FFC
19FF9FFCFFFFFD001006
19FF7FFB00500A009FF9
16003FF9FFDFF800BFF8
07FFAFF700A005FFFFFA
18FFBFF9FFD009005FFA
05003007FFD003FFEFFA
09003FFC002FFCFFB003
1DFFB002FFD006006FF6
15FFFFF7FF6008FF8FF6
0000AFF9FFB00AFFA009
18FF7000FFA006003FFE
1FFFBFF8FFAFF7008FF6
0BFF7001000FF6004FFA
1C007007000008001003
04FF9FF8009008007008
00002002008006004FF7
1AFF7FFEFFEFF9001007
07FF7007003FFBFFFFFC
05FF8009006002000FF6
18005FF8FFE00A006005
1BFFB007005FFD000FFE
06FF9FFCFFB001001FF7
02000FFF00500100BFFF
01009FF8FFFFF9003FFE
1EFFEFF9008FFF004FF9
01005FFEFF6FFCFF9FFD
02FFFFFF004004FF6FFC
1F00900100700000A004
04FFE007FFBFF9FFA003
17FFE002006FF9FFE008
1E006FFBFFB002009003
1D001FFF004007009007
1AFF800A001003001005
1F001003005FF9FF5003
17FFEFF9002FF9003FFE
02FFE004001006FF9002
08FFC000004FF7002005
0100100BFF8005001FFD
03FFDFF7005007000FF7
1F001004001FFBFFFFF7
17FFD005000001009FFF
0A001005FF8009FFA004
17FFE005FF7FF8009FFD
03002FFB002003002008
19001FFD009FF8FF7FF8
06000002FF7000006005
05005005009FFFFF8007
00FFB006FFCFF7FFFFFF
03FF9006004008FF9FFC
05FF8FFD003FFBFFE00A
0700500000900B009005
1CFFD007FF7FF6FF8006
03008001001FF8007FF6
0900000300AFFDFF7FFB
19000FFFFFCFFF003FFB
06FFD007005FFDFF9005
03FF7002FFD005FFA006
05000004FFB008006007
1C00A000FF7000FFCFFA
1B003FFB007001FF8000
00FFDFFC009002FF7FFD
05FFC001FF9001000FFB
16008FF8FFFFFFFFEFF6
04007004008FF8FFF000
0A000FF9004000007001
03FF7FF9003FF6003002
19FF7007000FF9008FFF
09FFBFFEFFAFF8003FF9
17002FFE001FF8FFE001
1E002006FF8FFB000008
1FFFC001006FFB004002
01000001003FFA007FFC
01003FFBFFD004FFCFFA
01FFC000002004006004
15FF900AFF6FFB003FFD
01FF7FFBFFCFFD001FFC
19FFAFF5009FFF00A003
04007007FF9007005009
09FF8FFEFF7001003000
19FF9FF5FF9001006FFF
03FFFFFC005FFFFFB009
1F009003004FFD002FF9
19FFD00A009007007007
1C008FF8FF6FFC001007
1AFF9FF8007008000007
1CFF8FF9FF800800300B
0B009008FFD008002FF9
00FFDFFAFFE003009FFC
1F00500A00200B003003
00FF7FF8000FFCFFFFF8
09FF8002000FFEFF8FF7
06002FFB005FF8003008
07009007004004005008
02003008000006FFBFFE
1E00200A005FFB006008
00009009FFB009009008
06FFE000FF9FFBFF8006
1C007006004007009FFE
00001FF7FF9FF8003001
07007002006FF6FFDFFC
1EFFFFFCFF9FFA008002
00FFB004FF8FF800A005
1EFFF002000FFEFFBFFC
1FFFE007009009FF9FFC
03003001000005FFE006
04FF7FFBFF9000FFCFF7
1FFF7FF5FFDFFC005000
17FFBFFA001FFC002FF5
0A001007FF6000FFFFFB
1BFFD001FFEFFD001001
00FF9000FFC000004006
1BFF9001002001FF800B
07001FF8008FF7009007
1FFF8FF900AFF8000009
1600000B00200A009006
02009006000FFE002004
1E002001000002FFA00B
05001005005008FF9002
03005FFB007FFD004005
05FFD00AFF7005002007
1B000FF6FFAFFDFF7FFB
07006FF7FF7006005008
04FF8FF5006006FFCFF7
18002009001008005002
02FFA001004FFA003FFE
05006FF8FF6FFBFFAFFA
02009009FFB00AFF9001
01001FF8FF5003FFCFF9
0000A008003007001000
07FF6007FFC000006008
0400BFFA000FFE005FFF
1A00300A003006FF9FFF
1F00AFF8000FF8008009
1AFF5FFC004FF9001FF9
03005008FFB004004FFE
19FFC000006FFD009002
0400B00A007004004FFD
02FFE005000000FFA006
02FFEFFF000FFE003004
0B006FFBFFCFF8FFF005
18000006FF7FFAFFAFFF
1DFF8FF7000008007007
05000001FF6002FFEFF7
00005FFAFFDFFB007FF9
05008009005008FFEFFE
0500700BFFCFFC005003
1DFFD00A009FF5FF7004
04FF9003FFAFFE009FFF
1F000007FFEFF7008002
0BFFBFF6FF7FF9FF8FFC
03002003FFB005004001
00FFB004FF8FFC003005
18000FF9FF6004007000
1E002FFD005002006FFE
03002FFFFF5FFCFFDFFE
09FFBFFF005FF8FFA006
1AFF9002001FFAFFF000
07FFC002004004002007
05002003009008002FFD
03FF9FF7FF7008FFAFFE
1EFF5FFCFF9FFCFFEFFF
1FFFD007005008000003
19FF8003006FFA005000
02005005FFB005005FFD
07008FF5003FFC005008
09005002FFAFFAFF6009
00002002002003FFD008
00006009007FF7FFC005
03004FFBFF9FF6FFF002
1DFFB003FFAFF7004004
18008009FF8FF9001006
01FFAFFA006003007FF7
1BFFE00A007002005FF8
1DFF8FFBFFFFF8FF9FFF
1D003002007003006FFD
1CFFFFF8004FF700300A
02FFD00A007009FFD004
09FF6000003007006002
03009008FF8007FFE000
05006FFC009FF9000006
1D006FFF00100A006009
06001000FF8001006003
09FFE00B005003000004
16FFE004FFDFF9007005
00009FFFFFBFFB008004
09009FF9003FF6000FFD
03005FFC002003FF7FF9
18FFC00B00A004FFB008
06006FFC001FFCFFCFFF
08004005FFEFF8003009
0AFFA006FFCFFB002005
06FF8003001FF9FF8FFC
19FFCFF7FFAFF7FF9FFD
0A009FFFFFD006FFA009
0B002FFFFF9FF9FF8FF5
06004002005006003FFE
05FF9FF6004FFF000003
1AFFCFFF00400A006FF8
1AFFCFFDFFAFFB008001
1E008005009009001001
1DFF8FF8003FFD00300A
1B002003FF8002003FF8
00FF8007001008FFAFF9
1F007FFA003001FF9005
1700AFFE009FFBFF8004
00008004FFEFF8FF7FFA
05004000002FFB003FFE
02004FF7FFF004FFAFFA
1E003FF8006FF7008FF9
00007004FF9007FF9004
04002FF5FFDFFC00700A
18000003FFDFFAFFB002
1FFF8FFD007002008009
1EFF9FFC007FFB005008
1E008000005008FFCFF8
1B00300900100100600A
09FFCFFCFF7001FF8004
19FFBFFF00B008FFF00A
1A007000FFE005005007
1FFFF001008001FFCFFB
06FF8FFFFF8000009001
1DFFEFFEFFB00BFF7008
1F008FFC009006000FFE
1BFFDFFD003FFD008FF9
1C009002004FFE004000
1D005004003002FF7FFB
01007006006005FF8004
09005FFF008FFF002FFE
1CFFBFFCFFFFFCFF6005
06FFB006FFEFFA00A000
00000000001007FF8003
19FFB00700900500700A
03006FFF004009FF8009
1F007FFB005FFDFFCFF9
1B001FFCFFE009001FFE
00FFC003000005007FF6
1BFFA001001FFBFF7FFC
0AFFEFF7001000FFB001
02000FFBFF8001004FFD
1B00800800300AFF9005
0A009FFB00200900AFFF
15000003005002009009
01FFE002007FF8FFF005
06FFCFF6FFA003FFB008
1A009000009FFFFF8001
03005FFF009FFE005FF9
03FFFFFFFF8FF7FF6006
00FFE007FF7FF7FF9001
1B005002FFDFF6FF6004
1E00900A008008001000
03FFA005FFE000002008
06002FFB005001000007
04FFBFFEFF900BFFF002
07000FFC004009000001
17FF8009004FF9009FFF
02000FFC004002FF9005
0B004FFC005000006001
08006FFFFF7009FFC002
1900100000AFFEFFFFF6
0900100A003FF8FFCFFA
09003008FFDFF7005000
01000FFEFF9FF7004007
16FFC009004005007007
00007FFBFFF004FFAFF7
00FFA001FF9001000FF9
06002009003003FF8FFB
1A003FFEFFDFFC005001
1BFFDFF9002002002005
00004009FF7FF8004005
1F007006FFFFFF00AFFF
1F000000000FF9FF8000
1F004004008001004FFB
17000000001FF9008FFF
03003FFF001FF8007FFB
1BFFAFFBFF5FF7FFCFFB
02FFAFF8FF9008FFB008
1C003FF9FFF001FF9FFA
05FFE00000B009009004
16006FFFFFF009008008
03FFFFFA007004FFBFFB
09006FFDFF6FF8FF6008
18FF8FF800AFFA00A004
1F000FFD000002007FFA
02007FF6FFBFFD004009
00FFD008009FFB009FFC
18008FFC006009005FFC
03FFE008FFFFFF007000
06000FF9001FF8FFCFFE
1D00000600300BFFEFF8
04FFF007002007FF7FFD
1B003FFD003FF7FF8FFE
07FFE003005004003003
0AFFDFF9FFD002FF8FFC
1A006FFAFFBFFBFFEFFF
00000000FF7001FF8FFC
18FFD000008FFA005FF5
01006001009FFC009002
1D006003002FFF007008
0600000B002FFEFFCFF8
1900200A00200A009003
0100500AFF6FF7FF6009
05001001005FFDFFD004
09FFDFFE003FFF006009
17FFCFFF006007002FF8
07FFC004004FF8FF7FF8
17FFD003005009002FFB
01FFF005000FF8FFE000
17004009004FFFFFAFFF
01002FFF003008001007
08FFE007005002FF8FFE
01001002FF8003FFFFF7
1AFF9006FFB000FFD004
02000000001006002001
1B002006FFDFF8001005
1C001FF9FFFFFD007FFB
1D000FFBFFEFFB000000
09002FFAFFBFFDFFA009
1F006006004004004FFB
1E005FF6FF9FF7001008
07FFFFFF001000009FF9
04008008FFBFFAFFDFF5
02006005FFC008002006
01000FF8FF7FF9FFFFFA
19000FF7FFAFF8002000
0500800AFF9007006004
06FFB009FFD005009002
15000FFE005FF7003FFA
03001FFE006000005FFB
03FFC008FF7FF900BFFD
00FF8000006002003FF7
1F000FFC000007004001
1BFFA007008FF8001FFA
17004003009FFD003008
08FFF003009FFC001FFF
01FFB005006003002FF7
1B003FF500200AFFE003
02005007FFBFFFFFE000
1DFFFFFE005FF8005004
17FFAFFB000004FFA001
03FF8001FFD007FF7008
1FFF8FF6007FFFFFEFF8
0A002000FF900A004003
08FFAFFC009004006FF7
02FFD005004FFF00A002
03FFCFFF006000000FFC
00000005FFA002009008
05FF7FFBFF7006001006
08FF8003009FF8005000
1F00400700600AFFAFFF
08FFA006004003008008
1F007007FFBFFF000FFB
05FFBFFA005FFBFFDFF5
19FFDFFBFFFFFA005000
1EFF9FF9FF7007FFF008
0AFFD002FFEFFB006009
1C002000FFA004005FF7
1AFFD00A007001FFC002
0AFFA007FFC00A009008
18007007FFC002007009
18000FFAFF8FF7FFD007
0700AFFC007FFA00AFF8
16FF9FF8FF8002FFC004
03FF8002001FFCFF8006
1DFFF006FFE00BFF6FF8
0AFF9FFA000008008005
17FF7FF7001006008FFB
18FFF004FF900700AFFB
1BFF6FFC008004003FFC
1900AFFE002FFB00AFFF
18FFD009FFE003008007
0200AFFA000FFC004000
1D00AFFAFFEFFAFF8005
03FF7FFE008FFB003FFA
1700B001008004008004
09008FF8FFD009001002
07FFEFF9008005FFF006
0AFF8FFEFFD009006FFD
1DFFB00300A000FF9FFC
07FFE007004005007001
00FFD009009FF8004007
1A006FFAFFE004000005
1FFF8FF7FF9008FF8FFE
0A005003FF7000FF9003
1A008009002000000000
06FF9000008002007FF7
03FFDFF7004FFE00AFF9
1A004005009006FFEFFF
17FFD00A007001007006
08000000001008FF7005
17003FFD005FFBFF7FFB
16004FFAFF7009001000
1E002FFC006002004002
03008008000FF9FFCFF7
01FFB004004FFF005000
1AFF8FFA009FFB00A000
1D007FF9FFA006FFFFFC
1A000FFCFFF000004000
04FF8005002FFFFFA006
05FF8009008009005FF9
08005002002002FFF005
18FF9008001FFF006FF8
1D005006002008FFF001
1C006000007000008003
19FFC003003003003FF8
07008003003FF9005FF9
03008002FFB004FF9FFD
00003000004001002FFE
09005008006FF9006006
1F000FF8005002FFC005
1B008FF7FFE007FFCFF9
1E006006FFA00AFF7FFF
1700300A001FFD004001
08002002001008002FFE
1FFFC00AFFBFFB00BFFA
02005001FF800000BFFF
03FFA006FFBFFE004000
0400AFFE002FFF002FFA
1E004FFCFFC000005000
18007FF8FFCFFA003000
1D00200AFFE001004000
1F007FF8FFDFFC003000
17FFF006005005FFFFFF
19FF6FFEFFDFFF004FFC
19FF6007008008006000
1EFFEFFD002FF8004FFF
01002002009FFDFFA000
03009000006000FF8000
08FF6008FFB004008FF9
18FFD009000FF8000FFF
1D00300A000FFDFFF000
03002FFF006FFE008008
19FFB000001FFB004000
0A00300A006FF8005FFD
09005FFDFFAFF7008FFC
08005004FFCFF7004FFE
0A00300AFFDFFDFF7004
02004FF8FF5FF5000002
03009FFFFF9004FFEFFE
06FF8FFE009001FF7000
1CFF9FFE006FF9FF7FFF
01FF8FFCFF5003008002
1AFF6FFA006004003FF7
0700A008006000008FFE
1E009FFD005FF9006001
02FF7001008FF8FFF007
1C00BFFA009006006000
08002FFD006005000007
09FFAFFAFFC009FF6000
01FFCFF9007003005FFA
1E000001009FF7005001
1800AFFF002FFE007FF8
1A000003FFC001FF8007
06FFFFFF008001FF6005
07005008FFEFFBFFE005
0AFFB00A008FF8FFA000
17000008FF7002FFBFFC
03003FFCFFCFFDFFAFFC
0100300A002009FFF001
1600BFFBFFA008004004
08FFDFF800A005FFBFFA
02FFCFFFFFE006FFB001
1AFFFFFD009000FFEFFC
08FFAFFC008FFFFF9007
09008002FF6FFBFFBFFA
19FF7FFDFF8FFE005000
09005FFF006003001002
1E000002007004FFEFFF
0AFFCFF9FFF003007003
03000008FFBFF8000004
1A00AFF8FFE000005001
03000007007FFAFFB004
03007FFDFFDFFA005FFF
1BFFE004FFF002002FF7
1BFFDFFF00AFFCFFAFFF
0500AFF9002000000006
03FFDFFB008005FFC000
17FF9FF7FF8FFF001002
1FFFDFFCFF9FFBFFFFF9
03000006000006FF8FFE
08FFF00800800AFFBFFC
0800800A005FFA000FFD
05FFCFFBFFFFFA002002
1E006000005008004FFD
01FF7FF9003000FFDFF8
19000001FFB005007000
17FFD007FFEFFA006FF7
02FFE00900500800BFFB
1C006009FF7FFD001FF9
0000000BFFBFFF009FFA
1A000003008FFB004FF7
1E004002FF7FFD007005
09005FFC00A001000009
04001003FFD004FFA006
04FFDFFEFFDFFDFFF001
02FFD002004FFD002002
0900200A000006FF6FFF
04006002009FF800A008
06000006FFCFFA001003
01FF900BFFCFFC006FF7
1C002FFD004FFBFFDFF8
00006004FFA000001009
08003002002002FFCFFB
1C005FFF006002FF9FF9
17003006000000FFC004
1E005009FFDFFEFF8002
17FFA00A004008FFEFF9
08005FF9007002004FFE
05004004006FFDFF6FFF
03005005005007008FFD
19FF7002000FFD003FFE
1BFF7FFEFFC009009FF6
1A002FF9002004FFA005
07FF800AFFE005FF6FFF
1F00300AFFF002005004
1E007FFA00AFFC00BFFA
09004FF9FFEFF7005005
18FFAFF9FFDFFD007003
1CFFBFFCFF9000005007
17005FFBFFE000FFF008
1DFFFFFCFF7002001FFD
1F00300800AFFA008FFF
07FFC002006FFFFF5008
19FFBFF9009FF8FFDFFE
1FFFB006FFEFF8002003
19FFCFFAFF9FFFFFDFFB
17000006008004003006
01FF9001002FFE003FF9
01FFD005FF6FFA00A006
03FFB003FF7FF8004FF9
08009005004000FFAFF8
09006009FFE000006FFD
17FF7FFD00500900AFF9
18FF9FFF002000002FF9
17000FFA005FFCFF7FFC
1A000FFDFF9000006005
04FFA007003000FF9FF6
05005004005FFF00A007
1E002008000FFCFFB000
09FF9FFA009007004006
07003002007FFD00AFFF
00000004FFBFFCFFFFFA
1C008FF8001FFA003009
03FF7000FFDFF9FF8001
05FF8FFCFFE00700AFFD
05009FFD002FFE002008
19004000000FFBFFEFFE
07006FFBFFB007FFB002
03FF6FF9FFBFF8005004
0600A001FF9002000FFA
07FF9002000007004FFE
1DFFF002009006FF9008
02FFA004FFF000002003
08000FF8FFAFFCFFD004
01003006FF8004004FFB
1D00A00A008009FFFFFC
16009003002000004009
05FFD001006008FF9009
19000005004FF8FFFFF8
00FF8008FF7FF9002007
17FF6000007FFC003FF8
07001FFD008FF8008FFC
09004FFD007002008007
0BFFD000001FFFFF9002
07002FFD004FF8FF8005
09FFE004FF6007003FF8
1EFF9FFAFFAFF8006009
18003FFA002006FFC00A
01008003000FFCFFBFF9
1DFFE003FFF007FFC005
00FFBFF7005FFDFFCFFC
06FFEFFBFFAFFAFFF001
01FF7FFF004FFF007001
1AFFFFFEFF7FF7FF7FF8
08004FF7005003005008
0000A009FF8FFDFFF007
04004000FF7FFAFFF003
1CFFF006000005004002
03002FFE001005FF6000
1DFF8008002000001FF6
08009FF9FFFFFF004009
1EFF6004FFCFFAFFA005
1EFF8FF7003FF8007FF9
1E007FFAFFA007FF6000
1B005FFCFF7FFBFFA004
1C001000FFAFF8FF7008
04009FF6006FFA002FFE
15FFB004FF7FFEFFC008
18FF8007007000006FF9
03FF7FF9FF8FFB002005
1F004009001FFD007FFA
00FFD006FF8FFFFFE006
1B001FFF009003FFE004
1B002008FFCFFE00200A
1DFFA001FF9FFCFF7FFC
09FFE004001FF8FFB005
1AFF9FFEFF700000AFFC
1900800700AFFA009006
19FFEFFCFFDFFEFFC008
01003008007000FFAFFF
04007FFFFFAFFC006001
1B006FF8FFFFFF000007
16008004007FFA006008
03007FFA002003FFF002
00007007FFBFFFFF7FFA
1DFFA00A006FF7003007
04FFAFFCFFC00AFFFFFE
00FFCFFE004002FF8003
00FFA00600B008FFF006
1C00300800500400B002
18001006FFCFFF005005
06005FFB005FFC008005
01008002003FFCFFAFF8
08007003FF6008FFBFF9
1C002002007005008FF8
05FF700A00300BFFA002
05FFF000001008001006
01003002FF7005007009
1FFFAFF9FFF001007FFF
00FFD000006006FFDFF7
06FFE000005006003004
01FFF00600000200A006
0500800B00300900000A
02007008FF5002FFF000
00FFC000FFE001002006
01007FFA003001FF7FFA
17003FF9FF9005FFE001
04002009FF8009003006
1AFFD008FFC00AFF9009
04009005001002FFCFFF
09FFAFFD00900A009007
17FF7FF8001007FF8008
1A008FF9FF9009005FFD
05FFB005000FFCFFBFFB
00FFFFF6FF8002FFFFFC
06FFBFF9FFC007FFF004
09FFB005009002009005
00005005FFB008FFF001
0700A000FFD003002FF6
08FF8002FF9003002FFF
09004000008008FFF000
17FFEFFFFFE007006002
16FFF00A004FF9FF7FF6
02005FFDFFA004FFE007
1DFFFFFD005008000000
1EFF9001009003008002
1AFF7FFAFFFFF9FF9FF8
08007008008FFAFF9009
19007007001004001001
1D009FF7FF6FF5FF9FFB
03FFA00A007000FF8FFB
00009006FFCFF8001006
09004FF8009008002000
1A002007FFF004001008
06002009001FFF003008
1DFFB007FFE007009FFC
03FFAFFCFFB003FF8004
07FF7009009FF7003008
00FFBFF9FF7003FFF009
06005FFA00B005006FF7
00000000FFA001006FF9
02FF7FFE002009FF7004
17FFC001005004FF9005
1F004FF7FFB00100AFFB
1F005000005FF6FFAFFD
06001FF6002003FF7006
16FF8FFE000FFAFFC008
00FFA006001FF9FFE004
1A009002003001FFEFF7
1A005FF9FF9008FFC003
18FF9FF9FFEFFA00AFFE
09000FFC00700AFFEFFA
0300A007003FF7003000
1D004003009008003FFC
01FFF002009FF8004FFD
03FFDFF9006FF9FFD000
06005000009FFDFF6FF9
19004FF6FFC00BFFEFFB
1B00800AFF7FFA001FF9
01002FFD003005000001
1B009FF7007005005004
17002FF9002005FFE001
00FFBFFDFF6009FFCFFE
09009007009FFB006000
17008FF7001FF8FFC002
02FFE00B009FFEFFAFFE
1C00000100A006006FF8
1B002FF7FF7FFE002009
09007008009009003FFB
01FFB004FFB001FF9002
1AFF8005005000FFE000
19FFC001FFE002003FFE
1CFFD006FF9007FFCFFD
19FFEFF9FFA00700B002
19FFDFF9004009001002
02006002FFC009FFD002
06FF8FF8008003FF6FFD
1DFFBFFB000FFD000FFD
19FF9FFE005002FFFFFF
1A00300A009FF6009002
02003FF800AFFEFFA001
05006003000009009FFA
1F001006FF8000002008
1DFFFFFC001FF8FF8FFB
05FFCFFBFFC000FFDFFD
02002FFEFF9004FFC000
1B001FFA002FFAFFB003
1EFF5006005FFDFF8000
1C006FFE000FFF004006
19002007FFD003FFD000
18007FFCFFFFF9002FF9
1EFFBFF8002FF8FFE000
1D00AFFD000FF9005004
1FFFE000FF8006FFF001
19004006004FFF009007
01009FFCFFA004006009
18FF7003FFDFFDFFEFF9
01007FFE007FFAFFCFFF
1EFFA003002000FFD005
1EFFC000FF8FFAFFE002
1EFF6005FFCFF7FF9008
16FFCFFBFF8FF8FFC005
1BFF8FFEFFB001FFC005
1C007005005FFDFF6FFC
1D008008FF8FFD001006
01FFA007FFD001FFF002
16FFDFF900AFFA004000
00FFB009000FF9001FFA
04FFF009FF800B002FF9
1B005003FFBFF9FFB009
18FFEFF600AFFFFF7003
05FFDFFE008FF9FFA007
1A003000008007000000
1B000FF7004FF9005004
1F005000FF5FFFFF6006
1BFFDFFAFFDFF8006002
1D005007004003FFEFF7
04FFA001FF9FF8FFC006
03FFCFFA007FFCFFC009
00005FF9000004008FFE
1E005FFAFFFFFA004FF8
00FFAFFA008FFA003002
06001FFA009005001007
07FFD002003008006FF7
03006FFEFFA000000FFC
0000500A003009007006
03FFA002FFFFFFFF9007
1DFFBFF9007000FFBFFA
09FFBFFAFF9FFC008FFD
1E003FF7FF7FFE003FF9
18002FF5005005006000
1CFFF000008009001002
02FF7006002009FFC006
0900400100400A009008
07005FFBFF8000FF7007
07FFCFF9001FFC000001
17006005FFB002004FFF
00006008FF9000FFDFFE
00003007FF8002FFDFFD
17004FFB009FF9FF8FFE
07FF7005000000006FF8
1E000FFAFFE001FF5009
1CFF800900AFFC005003
05006FF9003FF8006003
18FF8009000FFE003002
1DFF8FFCFF8002002003
17FFAFF6002005FFFFF8
1B000FF8000008000FF9
17000004FFC00900AFFF
05002003001003002FF9
1AFF7003004003001004
1A000005004FF8007002
19000FFBFFBFFE00AFFD
18000000001008009007
01007FF8001005FFA000
17FF8003FF8FFA001FFA
1E008004FFA003FF9002
01FF9008FFB004FFD006
01003005002005002000
18006FFAFFA001009001
07FFE003FFEFFEFFD001
1C008FF700200000AFFD
1EFFD008005FFDFFEFF8
0900000200BFF7FFAFF7
07FFAFF8FF9001FFB007
00005009FFA001FFE001
17000008FFE000FFC007
08002FF9000FFCFFC007
05FF7005003002008005
1C00600000600AFFEFFB
1D000000009FF8FF6004
17FFE007008FF6008FF9
09007FFDFFCFFBFFDFF9
18FF9FFF00600A008FFC
1EFFB000FF7001003FFA
00007FFEFFE002007FFD
19006009000FF6FFFFFF
05001FF8004007FF8001
1F008FFF004009002006
00FFA00200B008FFC002
1C005002FF8003FFDFFA
03000000003FFAFF9FF6
1DFFA009003FF9001FFD
07FF9FF7005FFCFFDFF8
03FFFFF6006001000FF8
1AFF9007001007006FF9
07FFB005FFB002008FFF
17001001007FFD002000
1DFF9FF7001FFA006004
09FFDFF7FFB000005004
1FFF8FFD008FFD002003
06FFCFF9FFC008FFBFF7
19008002000FFF001007
1CFFFFFC005003FFF000
05007FF9000007FF8003
1EFF8FF8FFFFFEFFEFFC
01004009004FFAFFAFFC
05FFE000000007FFC002
06000FFCFFA007FFB001
00FFE003006002000FFB
08FFEFFBFFFFF9005FF9
06004FFE005008000009
00FF8007FFB009FF9000
00000008005007FF9003
03FF7000006FFFFFE002
00000000007009008005
09FFC004FFB003008FFF
19FFA00A008001FFAFF9
1B008FF7FF7FFAFF6FF7
1D008007FF5FF9FF6FF6
07000FFA007009005FF8
04000002FFF009FF8FF9
17002FFCFFF003FFE003
04FFFFFB006009FF7FFF
05001006FFB00AFF7FF9
02FFB003005009002005
1EFFAFFBFFA000FFE005
04FFF004007006FFFFF7
07FFFFFFFFEFFF005006
18003000FFFFFB004008
03FF7002000FF8FFC00A
18004008FF8004FF8FF8
19005FF9007FF7FF700A
1AFF7009FFC005FFFFFE
00002FF8FF7FFBFFCFFC
1AFF7FFF008FF7FFB009
1F005FFDFFEFFF008009
1AFFEFFB006FFEFFB001
1F001FFF005FFC002FF9
02FF7006008FF7FF800A
03FF7FFE003001FFEFF8
18FFC008004FF8008FFB
1D006008FFEFFE00B007
1C000FFBFFFFFAFF9006
01FFEFF7FFD002FFA007
01FFFFFAFF7FF9009005
1DFFCFFA009FF9FFFFF9
1FFFB000004FFC00A00A
1D000008FFE00400AFFD
1FFFDFFA00AFFC004003
1B00900A007009FFF001
00008000006005004FFA
07006FFD00A006000FFC
1AFFB00700900700900B
00008000003FFC006FFE
0000300200800600900A
02FF7FFD007006FFEFF7
00FFBFFCFFFFFBFF7FFD
03FFF008FFDFFA009FFA
08005FFEFFAFFB000FF7
1B005FFDFFEFF900200B
07009003FF9FFB00A007
1AFFC001FFC002FFDFFB
1A007FFEFF9FFDFFFFFC
04007FFF00900000A003
01FF9FFD002FF8FFEFF9
02009FF6FFDFF8FFAFFC
18009FFA000FFB007003
1F007000FFD009FFEFFB
19005FFCFFAFFF004005
06007001005FF8FF9FFD
09FFF00B001006002FFB
18FF8002FFE00800500A
00007001007005002FFB
19003008FFE008FFD003
1B00300900800300500A
18FFC004003003FFB008
00FFD000001FF9000005
06000FFCFF8FFA007001
02000001009FFD000001
06004FF7FF6001FFFFFC
1DFFA003FF9008FF9FFE
1AFFBFF7005FFD007FFA
05FFCFFFFFEFFC00100A
02001009FF8FFCFF9007
1E000FF700AFFF005003
09009008FFD00900700B
00FFA00800A000FF6006
00002FFEFFC000FFBFFB
1CFFAFF9004005FFE009
05FF900800A007FFAFF8
1F007FFCFFDFFC003005
00FF8FF6FFBFFEFF6FF8
03FFB001002001008005
06000FF6FFD009FFFFFD
1E000003FFAFFC00500A
08007005000002FF8FFF
1EFFBFF8005FFEFF9FFD
18FF9FFF001FFBFFAFFA
1C00800AFFBFFE004FF8
19FF7FFFFFB002FFF00A
1EFFCFF9005FF6FF7FF8
1B007009FFDFF7007FF7
19FFB007FF8000004FFF
1AFF7005FF8003003002
02009002FFC008FFFFFF
1DFFC00B003009FF9008
06FF8005005FFBFF8FF8
1DFFD008FFCFF9002005
1EFFE005003000FFE005
1EFFE00B005001008FFA
01FFF008FFA001004000
00000FFBFFAFFD00A004
1B000001FFC001008008
1CFFF008006005FF9008
1C000FFBFF700AFFEFFE
00004FFC004007FFCFFB
01FFD009008008FF9FFE
19FFD006004FFF00B009
19004003FFA004FFAFF9
1EFFE000004FFD006FF8
06FFE002001FFD002FF8
1CFFA000004009FF9FFC
1EFFD004003000008FFC
07000000000FF8002FF8
1E008004FF7FFD001007
00005006FFFFFFFFBFF7
00FFCFFA001000000000
1C001FFFFFB00B003003
08000FFC001FFA001FF8
19FF8000009FF6FF7003
07FF7FF8FFF00AFFFFFC
00FF8003007FFC003003
04007002003004005FF7
1B004004006FFBFFE008
07009008FFFFFEFF9005
1F00000B008FFBFF9FFF
1E006FF900AFF7FFD006
1E008002FFDFF9003FFF
08007FFA00AFF9004008
1A007FF9FF900A008FF7
00007004FFB003FF8002
08FFD004FF7009008007
18008006FFC000007FFE
08FFA001006006FF9FF9
07FFF00A005001009FF8
09005002005FFAFFAFF8
19005003FFB004007004
1BFFFFFEFFA00900A00A
05FFDFFDFF9FFA000FFA
19004009008007FFBFF7
0500A005004009005FFC
05004FF8001004009FFF
03FFDFF9FFD00100AFFB
19002008FF7008FF7001
1700AFF7000FF8000004
18006004002005004006
1D000008000FFFFFFFF9
1DFFF005006003FFC005
1D001FFDFFE00B004FFF
04006FFBFF8002000FFA
02000001002003FFAFFD
19001003000FFCFF7FFC
1EFF7FF8004FFF006FFC
0500A004FFCFFE003002
0100700A001004FFB003
1D007005FFAFFE000007
1F006009FFD003004006
1DFFFFFFFF900AFF9000
02FFD007004FFA003FFF
08008006FFBFFAFF9FFF
06FFA00100BFFEFFE005
1CFFF000FF6FFF004FFF
1FFFC009FFCFFD005FF6
07FFC004000FFFFFB001
1A00100BFF9FFB005FF8
1FFFD001000000FFA009
1D009FFAFFEFF8FF8001
07006009008005000FF7
08FF8000008000FF7007
1AFFC00BFFCFF9008FFA
00007FFAFF8FF7FF8FF9
1BFF6FF9003FF8001FFE
1B006FFF000FF8002FF8
03007FFD006FFB005001
1D001FF7004002005009
00005005FFDFFEFFCFFD
08000004FFEFFBFFE005
17003004000FFDFFC000
03FF700300AFFFFF8003
05006006FF9000005FF7
00008FFEFFAFFE003FFD
17007000FFDFF6005009
00FF7FFAFFF003FF7004
1F001FF8005FFE000008
1EFF8FFC002FF7008FFD
07000FFEFFDFFDFFB002
00001FFA008FFA004FFC
09007FFD00700AFFD008
05006FF9005004FF9005
04FFFFFC009FFD007006
04006FF5FFB003FF7FF7
1AFFEFFF007009005FFD
1E006002FF700BFFA005
0300200A005FFA007009
18004007003008006FF9
04001FF6004003000FFF
07005006004006FFC00A
01000FFE005FFD008FFF
06008FFB007FFD000008
06009005FFE005002FF7
04FFAFF9006003005FF5
1B004002FFF006004FFF
1700900AFFBFFC003FFA
04FFFFFF001004006002
00007009FFB007003003
1C006005008FFDFF7004
06002FFF005FFBFFAFF7
1AFFC008009FF700700B
05FFA00BFFA004005004
19FFD00A006FFB001007
02004002009FF8002FFE
1B009001FF9FFE009FF7
18FFB000FF8FFEFF8FFC
1FFFD00AFFDFF8FFCFFB
00FFA006FFEFF9002FFA
1CFFCFF7005FFC004004
19FF6FFE004007FF6FFE
09004006008FFBFF6004
1CFFC003FF9FFCFFE00A
04FF5FFD001FFB00A008
1B007FFA00A005FFA004
1CFFBFF8FF8001004FF9
18FF8000001003008FFA
1EFFF008005FFAFFFFFE
18001FFD009004007FFC
16FFB009FF7008FF9FF9
05006002FFB006001FF7
19FFEFF7000003FF6003
1C005FF9007FFEFFD008
1DFF9006FFBFFAFFB000
02008FFB007FFEFF7001
1CFF9FF8FFBFF9006FFA
1DFF700AFFA007FF8000
06000002002007000004
17FF8007006FFBFFD006
1F000FFD00800200700A
1C001FF7007FF8000004
16003FF8008001FF7FFB
07003006003FF8007FF6
1C00100200700AFFD006
0AFFA002FFF007003008
08FF9FF6007005FFBFF8
1CFFBFF5FFE006FFCFFF
09002003000008009003
18000004000FFF001002
01001007FFF001FFBFF6
00001FFA003FFFFF9FFE
1DFFC008FF8002FFC008
17FFEFFCFF8FF8008008
1FFF7002002006FFF002
00000008FFDFFB007FFB
02004FF9FF7FF8005FFA
05FFD000FFCFFDFF9FF8
05005FFA004FFAFFB00A
1F001000005003001FFF
00008FFE001FF8FFE001
0AFF6FF7FFEFF7FFF003
1A001007004FFA007006
1D003000001FFB000000
1FFF600A00700A007005

