04003
08FFB
00007
14006
0C00B
01FF8
08FFB
0AFFA
1A007
05FFF
1F007
15FFA
16007
02006
07002
1DFFE
0500D
01004
1A00D
1BFFB
18FF7
04001
18FF4
14FFF
1BFF8
06000
1C008
09009
1F007
14008
06003
0B000
1CFF6
0BFFD
02FF8
1BFF9
1BFF4
0AFFA
1CFFF
0AFFF
19006
0C006
1DFF4
18FF5
07FF5
01FF4
14FFB
05007
04009
1F003
1BFFC
0A00A
09FF8
14008
1C00B
0BFF4
0B000
05FF7
15FF9
07FF6
02FF7
05008
13FF3
1FFFF
14FFB
00003
00002
14FF5
03005
00004
16FF8
00003
0800A
09FF7
1A009
1B00A
00FF7
14000
15FF4
03006
07FFA
1EFF5
08FF6
01FFB
06FF6
13FF3
15FF8
0AFF6
0AFF9
16002
0400B
1EFFE
03009
15001
1D00A
1CFF4
0400D
09006
1C006
06005
07009
05FFB
19004
17FF4
13FF7
09FFA
06002
0CFF8
00002
09005
00006
0AFF5
1B008
02FF8
03FFF
07000
0600B
07000
09FF9
15002
0900C
16007
1800A
07FFE
01FFA
1BFF4
14FF9
0400A
18FF4
05003
18FFC
19006
04FFC
05FFA
06FFE
0900B
13001
05FF6
1DFF8
15FFF
0DFF4
04FFF
0600B
14003
03001
1F005
1FFFD
1C009
05FFE
04005
09FFC
01FF6
1FFF8
19FFE
1FFFF
03FFA
03000
1600C
18FF7
1AFF4
1EFFF
05FF9
03007
0CFFC
00FF6
1CFF5
09001
0500B
00000
15002
01008
13FFE
1A00A
0B003
16FFA
1D006
0AFF4
1F006
02007
19FF8
00003
09FFD
07007
07FF5
1EFF8
1600C
0AFF5
08FFB
00FF9
0AFFC
1400C
02FFA
14FF4
0CFF5
1EFFF
03FFA
0B008
1F009
08FF8
19FFE
1BFFE
04001
1BFF7
02006
0900C
08FF6
00FFE
02FF8
15007
16008
16FF4
09FFA
1CFFE
1AFFC
08FF7
07003
05000
16009
14003
07FF3
19FF8
0800B
1BFFD
0C002
09FF8
0C007
1B00D
1EFFF
1BFF5
00FFC
0CFF6
02007
08008
03FFE
17005
05FFA
1FFFA
15FF6
09005
08FFE
02001
1FFF6
17007
1DFFC
19005
1F00C
04004
0BFF7
09000
1E003
1F006
0200B
1E004
06002
1AFFE
1BFFD
19FF8
05FF6
1700A
0CFF5
17006
15FFB
1D002
09000
16FFB
1BFF5
01001
08FF4
03009
19FF8
06005
1F00A
1400B
03FFA
01FF8
19FFE
07001
01FF3
0BFF8
1BFFD
1EFF5
03001
04FFB
09FFF
1CFF5
16006
1A002
16009
00FF5
0300B
06FF5
1E008
00FF7
01FFF
1D006
09FF5
0B00B
1DFF6
00003
1AFFA
00FFC
00005
08FFB
18000
02001
15009
09001
14001
1CFF8
06FF8
03005
01007
16FFF
02FFB
01FFB
0A00A
08006
06FFF
19000
1C000
0B006
00FF6
16000
00007
16FF8
01009
1FFFF
1FFF4
18005
1CFFF
0C00C
00000
04004
0BFFF
01009
1A00B
07FF8
0CFFA
19FF8
1B007
08FFD
05001
1DFFE
00005
04FF6
0C007
1CFF5
05FFF
06FFB
04000
00006
1DFFC
0AFFB
05FF8
19FF3
09007
1D002
01004
06007
00006
02004
0C00A
16FFB
1BFFE
0B008
0500C
1F004
09002
19000
0800A
1400C
0B005
06FF8
0400D
1B00A
07001
1AFFD
1A004
17008
14FFF
06FF9
0AFFB
15FFA
15008
19000
01003
1FFFB
02001
06007
18005
05FFA
16007
1F003
0A007
1DFF6
1DFF5
15FF6
00FFE
04FFF
1600A
02FFA
1EFFB
1CFF9
16FFC
1DFF4
0A006
19006
03FFA
1AFFD
1C00A
01FFC
15FFF
18FFC
09001
1E000
16FF8
1EFFA
0C006
17002
03FFE

