0367EFC
1CB80F4
06981AF
16C7F80
1990213
1BCBF6B
189BFB9
1638267
06A3DE7
1CD410C
1AB8036
03800CD
0268254
03341C9
03D4268
050FFA8
0490187
1F5FFAC
1B1416E
057FFE7
1F7C0FD
1F0FFB3
0167F16
1B93DC1
1983F5A
0593F8C
0854238
19F8087
19EBF7F
060C00D
0644247
19B412E
16CC0AE
080BFDD
04041AC
1CF3DB8
19DC016
165FF37
1CFBEEE
1923E99
072C1EF
04E409F
1D53F46
006807B
15E8260
1F37EB0
01DBE35
1983ED1
1DB41C5
080C0B6
1BC3EB9
004400E
1753F89
1F001B1
06D40D3
15E7FDB
0383E2F
1647F65
057FD80
1A03FB4
1F2409C
03F3E06
0403EF0
1EE417F
0863D94
1EEFD93
1F4C211
163C1E9
1FE7EB4
1B8BDD2
0983DCB
048001B
1EABFDE
1AF8089
08C7FB5
0133E44
01CC14B
1A481A2
18C3E8D
09800F7
00DBECC
1878186
1CBC069
04BFEFC
1EDC17D
17B3F26
088C02C
1B7FE64
1EB3FA9
038020C
02F7EE2
1BB0226
1687F50
03EFF4D
1C27FE7
1A80278
0843EFF
0363EB3
1F601BD
16CC0DC
189402C
173005D
1CEC09C
173C172
1F00089
1A67DA4
1BC3E17
0623F20
1F3C190
016FE61
04C3FB7
18101E9
1D53EFD
1D5BE8D
0787DE9
0783F64
07B3FE1
174BFE3
1A47FA2
0544255
00E8191
1AD00A8
05A7ED5
05C3EED
1C2BF9D
1D03EC4
006FDA5
09BFDAC
05E4231
095BDA2
09EBEC5
19DC272
0388059
0A10132
1E18243
0084191
02EBE65
1DBBE33
186C07B
0203DFD
019BDC3
192FF5C
01981F2
184803E
06D80C7
1BF4117
1CEBDFD
094BF00
03C00F5
1EEBFE1
188BF0D
1A3FF95
191C126
1B4C0D7
0273E8A
078BE1C
1C4010B
19FC237
028C152
03E7F65
03D40B8
007C03A
1CC4068
1ED7EAD
074C22B
19F4005
049FE4A
007C25B
1BA7E97
176FF7E
0153F23
00E027C
198BE3B
1AF402E
0107FE9
01B40A0
1DC01C1
04BC253
0827EC9
0464012
0227ED6
1D27F96
0A13DC9
0403EF7
1C98009
054C25A
0937E18
1A4C1EE
047BF32
1733DDC
1CF3F27
1730098
16B80D5
06B3EAA
1FA4228
01A4073
0483F00
1EC0215
1F340C7
02941AE
08840D3
042C14C
173C18D
06700F9
0843F22
1BB3F1D
07EBE9A
084FDE1
08E0258
18CFF36
0450266
17BFDDC
0558275
1773F7D
18ABDF5
008BECA
0640215
1CC3EB6
09EC1B9
1DDC096
079FDFE
02280B4
025FDC2
1E9FD9C
163BEE1
172411D
1A6C017
05F3F60
1A9011C
03B7FD5
1938187
011BF7F
05C80DC
19A80B5
1657FD9
1BA806F
063BF4C
177427D
0867E77
1DF821C
1B68039
168412B
002FF7C
1BEBF3E
1E1BFA0
030BFF8
19481D0
02DBDD0
05A3E8F
1E5FFCD
042FE4A
0200232
02E8136
02001CD
0153E91
1B4025F
1B77F00
00DFEFD
0324221
1FFFEC9
052BEF8
17EBF4A
1F680C3
1FDFDB7
04D7E13
05F3F0B
1ED809E
1D77E0C
1B94204
02B7DDC
0843D8A
0060277
00F81B1
0937EC7
0533E47
0137E83
1B4FDE0
05401DD
054BF48
1757EBF
016FE9D
01C0164
1ACC214
18C8026
185C26B
19F7E9A
1E4421E
1F34046
097BECC
0163FF9
057BDC2
1A84171
0903EE8
1C4800F
1CE4202
1BF3E66
02340AE
190FDC3
070801D
1AB0159
00F0127
06CC1B1
0628045
0213F12
1A87DBC
00C3DBA
1B2BFC4
18F4183
1B401D9
18A7F38
07BBD7E
036BFA9
0887D8D
0077EC5
0370112
1D3FE2A
164FDE4
0913F03
0537D7A
1E54274
1A97F27
1B4BE4F
02A0139
19CFF5B
09AC211
03D81F3
1E64067
17F7FDC
0330124
1F2FFA0
04501D7
00CC108
04FBE4C
193809B
0640022
1C4426F
1F6407F
05B3ED5
17980C3
03D4051
005C1E9
083FFA9
1E2BF16
1D7BE4D
1EB8243
0600157
1603FCD
049802A
00A7E33
1EF0193
03DC191
166812B
003425D
1B7426C
1D8FEA8
1C4FF1E
04F0210
027FFFF
1E9C0A6
169823A
1993E20
0023EAB
1873FEE
00B3E21
035811D
19CC056
0903DBD
1903DA2
08A3EA7
18201DF
182BF87
1673FC1
181413C
1F43E28
082C06C
08B80B1
01901D3
19981A6
05EC0AC
05B3F37
1D23F90
09940E2
18F4082
18B7DC6
1D97EB1
0343EB0
0377F80
1BE81EC
1AE0151
0127F7B
068410E
03E7E5D
18F0050
05EC0C6
08E7E9B
06B4129
07A4276
0707DA0
19EBDEA
1738087
0593FA4
037C1AB
1B63FB8
083FE1C
180C206
1DA8044
1E5C187
07B026D
1F80029
0517E24
18BC067
160FF7E
1F800A0
1B2424D
0803F77
1878192
0298210
00CBE2B
1B9BD80
044C0F0
03A81E0
1EB7DC6
038410F
1D1FF24
1B9806B
168BF63
1BDC206
16280B7
1B040B4
0498148
1E07DBE
1BCC0A5
07D8016
0213EFB
1890269
1948072
03C4081
1DF3F7F
056FFBF
04100AC
1DBC1BD
07C7F82
00F01B3
18C3F9D
17A3FC8
15F81B9
0660210
15FC094
1847E86
16C40A4
166BFCA
1EC00DF
16C006F
1A001EE
1980236
055422E
1E2C10E
1D43F35
071BEF8
01F7F1E
1CCC27D
0678193
1D041C0
1D17F03
179FED2
1764119
1FE4054
052C0DE
18D4010
192822E
06900B0
04CFD8E
1DA01E2
1BFFED0
18EFF2E
06D812A
16281C3
061FF3A
0363E0A
19C8107
1DF41B5
1C3BEC2
1DC808A
1E40202
06C3E40
012400C
0624057
0783E12
19480E6
0330124
05FC156
1D27F9F
07B4160
1C54170
1CD00BE
1C0C053
16E415B
1EA41C6
1B44170
1EBC1E7
1C10156
09441A3
05A7DF4
08E7EAD
0743DA1
0374019
076C04A
07E7EC0
02F8238
18F8230
1FCC003
1D3FEBA
05B4282
04A4262
18701DB
00F020B
170C284
06A425B
017FFEE
09C008A
1703FA6
19C0217
1F23FF6
02B4102
1F00066
0827E87
1BBBFC8
089BF92
020C016
02C7E62
06A016A
1E840F5
1E401A7
171C08C
1F0FE9D
041C210
094C270
1707FFC
1EABDF3
17D822A
1ED3FE0
00FFDBB
1D4FDC1
1627E3F
030C03E
1880213
1ECC141
1923D87
1687F55
08E8235
015BEAF
163BF12
04C00ED
1A54108
07941F4
19F811B
1D5823A
199BFC0
03ABD9D
1E800B3
173BD91
1E9C278
09BBE2C
1DB7FCD
045C009
092C1D8
021811B
0147FFC
0233E1E
1F34177
064024F
1A4C25E
09FFD86
1F24124
1BE40F2
04680FF
17BBF7C
01401B1
064BDE0
09BC210
03DC02E
059816B
060811B
09C7E5A
01D3FC0
09DFFA2
05DFDE9
1C24161
17D41C6
0333FF4
1E9020B
033400E
058C1D1
002C07F
0963DE6
041C044
093FE13
084019A
1BC4247
00EBEDC
17BBDD8
00D3E4A
1F67FCB
08FBE3B
15F7E94
1F73DC3
191FF00
022024D
06C0208
087802E
1EAC17B
1963F2A
039C25D
04C3F6E
02A7F91
1A0FE03
1818226
074427D
02A3DB4
164014F
1E00077
0643E6C
17AC168
0837FDB
1FD0257
00D80C7
1960250
03D7EA3
009C0B1
088C1AC
0433D97
04E80D5
08BC1A8
1C5FE00
0673DF8
191BEC1
02C4166
1FF4190
0357FDF
06B3E9C
1BC8020
0660174
0104144
17F808D
1EF8040
0323E37
003C034
17C4122
1693FAA
08D7E5E
1C9C107
1898235
0318174
192C030
1C300DB
0403DDC
0213FFB
1AE8128
05D3F9D
07780CA
168417D
0488098
1F4FDAA
02EFF46
02BC13F
09C7F40
049C111
01A410C
1A001F8
1F2814C
02B00EE
1ADC011
1678054
0947FDA
18BC19F
03A4001
17C4054
1694169
07BBE11
1FC81FC
0873E84
0658083
0567FA0
1957DD0
1CA416B
01D7F25
1764152
183C1F9
031BF46
170BE61
089427B
04B3F56
0093FA2
0553EDE
0273D7B
1813F4F
08DFF41
071FDDB
18DC132
1894185
0938143
1DF41D2
050C1FC
178FE1F
1988214
07481AB
1DABE59
1733D81
1DF4137
1E4C052
1BD81F1
1A48054
00D41D4
012FF16
178406D
19F01F8
16D7EC2
05D81A4
02EC0D2
000FF81
1A140BE
1EA002F
1B8FE60
1FEFED7
1C47FD2
19B0163
02AC138
08EBF2B
19A41C6
184BE33
1AABDD8
07F81AD
1B03F52
178BF63
098015D
1D740AD
00E01A9
0174075
079BE49
1D2818E
03341D9
051416D
09B3E7F
03D81AA
02E3EE3
19ABF26
1F441FF
1713D8D
19F4261
049C17A
03D7DF8
1BF416C
195C178
0693E33
1654250
16C7E56
1CD0031
1DAC0A3
06E7E90
1FD4188
1D2BDD3
1DDFDD3
1C3FFE4
09E8184
082BDBB
1853E4C
08FBE06
07A827F
18FBF43
06280A9
1A13E2F
19A421B
00A3E98
0970027
07A4170
090BEA6
0873E28
1DA3FF9
1DC7F32
1B50010
00DC268
01EC19E
19B825D
0608270
1734248
1D7C115
050FE64
00F427E
1A38047
008BF62
09440C5
07CC0B1
07BC213
0077F83
18441CF
055FEDF
1627FD9
093BD7E
169BD8E
013403D
057FDEE
17BBF0D
01FC1A2
0723F59
067C255
1BC3EBD
010C050
05D000D
05F7D99
08D015D
03F3EDC
06A8259
1A6C16C
1D8FDF1
185C15A
196FE0D
06D815D
0887F3C
1C4BF8C
1D4809D
180FF86
1AF01EA
18D7F0A
07D407E
079BFE8
1C67E35
082C1EB
01EFF2E
1903EC0
1DB80E8
093FF88
1BF41E7
1EE8109
0537E20
040FF4F
1B4C17C
006420D
1D2BF66
1987DFA
01CFEF3
03E00A6
016BE49
1D17E65
1AC8284
034C15A
073FEE7
0227FDA
18EC0C6
085C210
04CFEB7
09340E2
078FF52
1A30096
004BE7B
014FF99
1B4BF98
09440DC
1D57DC3
16C3EE0
1D23F68
1EB01F0
07AC25C
18F4035
020C21B
1D93EC1
1F2002E
06841D4
1EBBFD3
03F3D80
0434086
1DE410E
02CFFC6
1D8024C
165822C
077818B
193BF90
0154245
024010F
199FF42
1C4405B
0443ED8
16BBE52
183FF50
1717F61
1D97FE1
05781B9
09980C8
01E80BB
17F01E8
1A77E4D
085BDE5
1DE026A
025BF56
033803C
06D417C
1E27F39
180C0CC
072FF0F
084BDB8
01980B1
1A9817E
1CB7E9D
082C081
085C0A4
07381D7
00A825C
027C05E
09C017C
1B18134
1BCFE62
17D3F42
1C6010E
0303FC5
089FE17
067C09A
1AFFF80
1620000
08741DE
18A81B0
18940AA
1E0BE5D
1F23E20
1D940D9
0690240
02900AC
1E00231
1BFFEBA
03F3E56
180FE3F
08CBDBC
16CC025
1943E17
1A7BE10
1E400E0
1A14146
1988143
0513FBD
0177E7C
0260132
0443DF7
17CC0C3
1A4024C
19FFDE5
0463F0C
09A7FB6
04BFE13
1680252
16A7E12
04F0110
17B7E45
037C1F8
1AD8050
1BB41C4
08CFE01
1DE0225
08A81F0
1B24156
04F4202
1E1BE7F
011BDD8
082FF5B
1E3C02E
05F81CF
0158280
1FF407B
0358123
1804235
16C0037
00B3EF1
0084026
1AB80F0
03601CD
162BE73
01481EF
1D7BDED
0413FAA
199812B
1BB3F20
17D0026
1B04267
16BFDCC
02B7F39
1B0C10B
01F7DFA
00F7D89
1B680F5
1BAC106
052BDDE
077C1BD
06FFECF
1884284
0443E66
033BF23
19BFEC6
02F40A4
19440D1
1EA8135
096C196
02B7E70
17BFFDC
1783EAD
18CC12F
1A24184
19FFF7E
04CC1C7
1F0C216
07841C1
0253F67
16A7DE9
040C207
0858060
0607DF7
05CBDC4
00CC242
1658021
03BBDC6
05500A9
19840F1
0347E91
078811A
1900214
1E0FE57
1CAC1F6
07F01A8
170C18B
1973FD9
171BE1F
1BDBF08
06A812B
05C7EE5
04B3F36
0613DB8
18CBDFD
03E3E43
031FDDA
07C8104
05CC0E7
08B4221
03180B8
029C1B2
1927EE2
1B17EF1
00D41DA
00A7EB6
08580B3
1B8BFB7
05640BE
030BEAD
087C18C
0A08091
16DC145
03F7EDC
1A23E44
1DDC034
08A7D8E
093FDA4
15E422C
005C1CA
1E70021
0420005
1768042
091BF86
173FDDE
01101BB
035BFDA
1C07F14
183FF35
1A4FF17
1A07E60
03EFF3E
0958132
0967E0B
16B427F
1DA0114
051BEF8
05CC264
04A3DC5
08A8178
03E7FA0
027FFE9
0660161
05541C2
15F7E0B
1CCBDA3
0214143
180FEE8
01DC0E0
1F6FE90
076807B
1D3015C
18C7E62
1E7FFD0
064FEB5
074FF94
01FBFE0
0413F48
03E3D90
08E81FD
1F0023C
1B801FB
023C1F9
1A17F10
076FED3
02AFF4B
05EC1EE
1A5C1C2
096FFAC
0A10261
1AAFEAB
1CD0246
065BF62
16E4240
0A0BDC9
08CC21D
1E2C031
16F419F
1C77E75
057BD7B
1E13D96
058BE4E
17E7DC1
1813F24
1BC3F2F
19FC0AA
16E7DEF
18800D7
03A3DD2
068BDEA
02EBEC8
18BFE33
191817C
02000D4
175FDC6
067820D
082FDF0
1B60162
09880CB
0044081
18C422F
01800C9
02A4258
0997EE2
1A84167
1C0C1C4
17880BB
0173D98
0044070
05E7E85
1E5FEF2
18DBDC6
0918275
0463D88
16F4246
1F9C0D3
0700215
0210161
00A0224
1F0C04D
1C7C195
1D83F3C
01D4063
1890081
00381E0
173C118
1D6815C
0798049
18B8154
1E48219
188FDEB
047402B
1E34225
17E8104
0823F96
0488179
178BE4D
1BE40F3
1C7BE95
197C16C
02B809E
089C1B4
006BFE8
03B40EE
1EB3ED8
011BF25
0583FA4
1BA0048
191C174
1F7806E
16F7DE3
1897F62
1FA7F88
1D4BE27
09E8279
078018C
1FBBF59
18E8110
057FDE0
1CB3E26
1F57D99
030C1A9
0833F9A
19B7FEB
05BC185
1D67D94
1AAC18B
044FF03
0163D9A
06D8145
1970031
1847F6D
0708179
001FFC9
1E8BF02
08A40E3
0443E5E
1D4BFAE
0613F58
19EBFF4
1DF023D
1710260
18D8107
1B4C263
1A580AE
1B58275
1BFFEA4
032C150
1693EBC
05B823D
1D8814E
000FF21
0313EFF
1A2BEE8
05A01DF
09FBE64
09281E9
1C0423E
08740E4
1F600CC
009825D
00B8281
04EBF56
03D408D
09A7F2C
16081EA
0467E57
1AF01EC
1EDFE1E
1AC7DDB
0514030
09A7E7C
00CFD9A
0984065
02AFE23
07AFFDF
1644150
02FFE69
022FF5E
188FDC4
18F3F79
015C1D9
0547F46
1A0C00B
167C047
0868054
18CFEBA
02301F6
064BE71
0950183
0993E67
1D4C159
0893FAC
0958076
09700DE
059C260
048016F
0844221
08F8103
06E4287
0857E2E
19A3F95
0457E9B
0497EF1
06E8170
05EC01D
19581CD
0484153
1723FEB
0507E03
1FB810B
072BEF5
092BDFB
1EC7E8E
0810156
01DFE1B
19AFDC5
1E90047
06E8063
0607ED5
167BF1B
0403D8F
0087E93
1C8FF52
076BE80
1623FC6
17EC0BD
194FFCB
19AFD83
17A0054
03F7F2B
02841C3
071BF79
1754287
19A81F0
18D7E97
1630054
1B2FE0A
057BF2C
0150280
17F3D80
0863E5D
04C7D86
166FE76
097FE69
051BFC4
18E014F
1C60192
01DFEB7
08A821F
042BE2B
1EB3F42
1C67E69
09AFF8B
01FC244
1E17F1D
17E40C1
167C0BE
025FE34
0284092
1F2BE3D
1C1809E
1F34034
079BF24
038818B
16E8073
182FF06
1B3C21B
1CB81A4
0728179
1ECC18F
1F30149
02B4152
177BDC9
091FF4A
02F8191
0603F05
1C5BED5
03FBF5A
057C007
174C009
16A3EF1
1FD40CA
080C201
1FA0203
04CBECD
031FDCE
182C244
1C6BF0E
062018C
16B0113
1B4C074
19BFEA1
0898164
042FF41
1823EC9
1D8820A
1DF4280
1EF4097
1FA7FFA
1E7403E
061BEAD
1A34144
0137E38
1D5FF8A
05900DF
1F37EBA
1F10171
073BDA7
1E58001
0888051
1DFFDA2
06A425C
1F27EB0
087C15B
191FDA9
0017EF1
0617DAE
1E0BEA1
002BE5F
04C3E82
1FFC1AB
00F012E
022FFEA
022017C
0553DA8
1C5FFFE
198C07B
04F80BF
1F8811F
08FFF88
00A7E6F
1AB8136
169BEF2
1FBC0EC
004C14D
1CAFDCC
039C240
189BE38
1830137
071006E
1627F37
0223F1B
1DB3E2B
15FC191
1B13EFE
1DF3DD2
0803FEB
074FE80
048BDD9
06800C6
073801E
1CB0067
1FC3DF3
15FBF8B
1BC40C7
1B83E76
19E0198
04B4173
059FE7A
04740FB
07B7F4C
164820C
01A0234
08C8161
16CC0EE
0218000
1B47D86
078C10F
1A08013
175C26E
0273F28
1A541F4
1C37DAB
0783E54
062FFE0
053022F
071FDF4
0077F9E
1F1BF88
005C23D
022017F
0867E20
017C005
006C0B8
1873FCE
06ABEFD
060BE65
0214233
04D023B
019FE2F
0397D99
05FBE4C
0980189
1E040FE
0867E4F
061C1CE
043810D
1873EB7
186818B
082C014
1E8FD8F
0117E67
0570159
19B3F20
1BE8231
083FF41
08300EA
0767E97
16140FF
0468084
096C18E
1F2FF20
0113E68
1723E46
07F7E9B
1E98201
184BE9D
0680175
0213DB9
15FFF57
014C0DC
0723F38
1AC0195
082C088
02FBF82
07F40E4
1D701F3
1C2FF05
067C059
063BF54
1A800F7
0243FD8
06AC122
03FFF44
0074077
0333FF9
1AD7F46
0127EAA
07C8256
081FE2B
1840152
168FE74
1A00014
054FFA5
1978268
01B4069
1D0C066
1957E69
162BFA9
063BF11
015C1E7
1A13F70
08E0212
1B13E90
193005E
1C07FBD
1807E95
1C0FF9E
05EBE84
16241F3
1E4FDBC
18D7DD7
064801F
1B3FEE5
0328007
04AC1C5
1D6C194
1C87E07
0520263
04701DA
17FC262
1E13EEE
19DC01C
17F8246
18CBDD6
06E3E4D
0A0C10F
0053EBD
1733FD0
08840B9
1F9C23A
1C47EE8
1B67F09
1A8FF04
073C1FF
1F28123
1AC40C8
1D27FBA
048807E
1ED421E
1A4BEAB
1F7C137
1D0FFED
1C5C094
0043F88
04EFEA6
026401A
06DBF14
1ADBEC1
0447E1C
03DBF6D
02CBF55
0530141
02BC17B
1EF01EF
07DFF80
1773E1D
050FEBD
07AC11C
0037DDE
1E1010B
189009B
1FA802B
091010F
179FFAB
19CFECA
1CA41A0
170BE6E
1BD3FD3
00A0234
1713FD1
19A8133
04C7E20
07FBFAE
1A8BE64
1F940BA
1BD7FD3
177FE7E
085412B
1FA0257
1F4406C
076C002
0708134
00601DB
186BF2B
1A9FEBF
19D3F3B
16EFE07
1663E3F
0923E3F
1C6FE46
0963E87
18C417F
17541F5
1FCC214
01301A5
1B87F9C
055FDF1
1C17E72
1E97D81
1E6C081
00EC16B
01FFF87
1BABDAD
0697F3B
0007FF8
16FBE4A
0543ED6
02E800E
0903ED8
1C8011D
075BE67
03CC093
16DFED3
1BB0232
05C7FBF
185C234
08C400A
085FE84
1FE81AA
0797E41
1E54217
1A88200
1EBC168
17D3DF9
030811C
0833E82
098C224
04B3EF4
05701A3
1FA3DEC
1B17E12
1633E03
064BED1
165819E
1AD81BF
05B821E
1B43ECA
07601E9
08DBD8B
1D87EDF
066C239
1A6FE66
082BF87
1910215
1D0C0E0
1F2010E
0557F48
1A30042
040BF5D
1F6BE47
01541DA
010FEC0
1EE81E7
070421E
06800AC
05B4114
056BD7B
0763F61
1BB41CB
02EC05B
1EEC249
0584040
197FDC5
03D8081
16CBF28
02EFD9D
1E04248
17C3EAE
16ABEA4
1867EFC
0178028
01B4055
172FEE1
08A3EEB
1E58134
1D881C8
0537FCE
1783EFA
05C8142
030BF1E
00A7D87
03F0002
0630090
190FFD1
06CC1B0
08FFFB1
1AA7E2F
1FD8128
09DC1E6
041814B
1E4BF2F
194BF06
1E9018F
1987E7E
1938225
1F3C0C0
181FF47
1F18008
1D54215
01C3DB5
02CBE5B
08A7E6D
00E425A
05A3F5E
1B7C205
1D980B2
0667DB1
0194066
1873E4D
04CFD95
1A64005
00A81FC
081FF7E
1CD7DBD
1D7FF1A
08FFE7D
07441AA
041BE72
090016F
0113E8C
167C0CF
1D57E22
1FE807A
0057F64
1A2FE76
02EBE50
0484226
1D03E2D
173BF1F
1917E0D
08B7F8D
18CC1BA
1F3BEDE
1A88208
034C196
03E3DF5
1C9FEF9
00381D9
074C201
01C3F3D
02780A1
1E10166
16FC188
1BB3E5C
1C2FDF6
01200A6
009FF25
06B3D99
1FCFE07
1AD3F31
00A3E8F
0143FE9
1DA7EA0
1DABFF8
0633FFF
193BE90
091827A
1D0C163
180BF7C
00240CC
17E7E9A
061C12A
00A7F4C
1D23D9C
0497F1C
1C0007F
03D8086
1BB3E85
06AC08E
1C54224
067C251
011FF9C
06C7E43
09941B5
03A0094
052825D
01801E0
028BEF4
1650166
05DC134
1D8BFFA
0374247
03EC1B1
056002D
059BFFC
0838256
057FDC5
19C8279
000C12D
1E30061
068FE6A
0783F68
1AE7F28
18C0211
0884032
1BBFE2F
1A1FE1F
07C0282
01FBFB2
05FFD7B
04501D7
029FF6B
1FF3E9A
184BFC6
15F8048
071C007
0127F2D
15E40C8
19DFD82
024C0D8
1FA7F31
091FEFC
03CFF5A
09F822E
0583E1E
06CC1BB
195C0F0
0A1BDEF
06500AA
172BD82
0777D91
192BFB7
048FF30
1D9BFE0
08E41FF
09E7FF0
0898108
03901CA
1D23E41
058821E
0A18021
0744241
04AC27A
021021E
15E4030
06480B2
172BFF4
1994259
171002D
0447EF1
00D3FFC
022019A
1A9423C
093017A
015FF93
174C17D
18D4069
0844116
1AFC132
181404D
1E30092
1F0C108
03E002C
0344002
00AC066
1ADFEB6
0800211
1F2FD89
1C63DA0
0A1C008
16941E3
0633F6B
078820E
0393F14
16BC08B
1F6C10C
1FD7F8C
1FDFF8D
19EC160
17C410D
07BFE9D
1D4BE22
1C53FF9
0443F96
17FFF13
1F901E2
165BDD1
0943E28
1937FE6
16F3E87
175BDF0
18E000E
099FFAC
058C21C
06FBE81
1DA8166
095C17F
0047F45
16001E9
1BC3EA1
0428017
0888248
1940216
1714110
1D14278
1BAFFDF
17FBDF5
175FE75
07C7E17
169BFF0
1D73EF0
098800F
16EBDB3
1CCBF32
04540E3
19940C1
047FF23
0577EC7
1DCFEAB
07DBE38
07B7E00
008BD93
19D014F
02F81C9
1D63FEF
0763FA5
1D1810E
1A93E5E
1B18109
199BEFD
018815F
05200A4
1667F1A
0593E23
1F1C215
1C80039
09E00D0
0267F21
019FEBC
1BC3D88
1C5009C
08301D8
018007F
1FBC1B4
022FE3E
09AC0AB
06FFEBA
097C22D
1C8C243
1EB3F44
1F47DA4
09DBECC
1AE3FE3
17DC1CE
1C14235
03F0103
1E13FE9
1AF41B7
1F93DF0
0107E70
05580D4
1607EC2
05BC212
068FEE6
1E28118
17FC168
028802B
1697F95
057FEF3
06E411D
17D3E7E
090808D
1DD81EC
09DC0A8
0A1825F
1F8FD89
0304203
1F03E89
1AE0263
1E6BDAE
1B3FD91
1D04189
1C9FD7F
00E005F
09B4209
16901EF
06DC147
185BE02
05CBE40
0487EE4
02BC09F
04E3FF7
006001E
1730105
0973F32
163BEC8
1A40076
04E014B
048C1D3
19840E4
063421F
04380BF
1DDFDC6
1E8FE40
1A700DC
0918075
04F3E95
1BABFD0
1653FF7
1D7BED0
17E4019
06601C8
1740086
164C251
15EFD9B
02A3DA8
1A5413C
02DFE10
1C97EF5
00E7E5A
1964125
07EFE74
16CC0FF
19C4243
1CC40B3
0068082
0214051
1B8FEAB
09E413E
063FDB7
063BE8D
1B3C0B1
1A3809E
1F3810F
1AFC037
096803A
18A3F55
160C15A
0750283
19FC268
17EFFA5
1A4BEFA
028FDD3
044BE9B
092BDF2
1EC410E
1AF016C
18C01DF
1D7FDBD
02DBE75
1C03F4E
036FFB1
099C0B8
06700F5
0237FA3
1B4BEB2
02EC218
1D80065
1B3BE79
189BF19
0033EEF
01540F5
086FE46
08DFEC9
028BF44
1797F5B
1767E1A
0497F9E
18C7ED5
19B7F12
0790166
1D30286
1647EED
190C1D1
033002D
1BC4101
1A3FEA5
0810256
1BC0207
0603ECD
03E0239
1F08111
0003EB3
1F1C1B0
081BFCA
031C1D7
1EF7E9B
044FF11
0314088
0650210
002415E
1F67F2F
19FFDC6
01BC15B
1768006
1C1FDC3
07FC208
01441CF
1F83E9F
1BC4098
019BEF5
1E34079
16DBE4F
07C7F11
1677F97
02DFEEB
1C37DAB
16A7DF0
056C0B9
068C01D
18D002B
03FBEDC
030BEC8
1827F51
000BF04
1CD7EF6
1CABEE6
1DDFEC9
1A13F05
06F7DEC
064FFA7
017FD82
1BBC1BB
037C14E
01F41ED
08EBEFA
07700FC
1A27D8E
070BF9D
1B2C13D
00C801B
17A4079
1C67E13
1C6FDCC
01A81AF
1FEBFDE
038817B
162BE3F
0887EBB
019C222
0007EB0
1ADBF47
175BE93
184BFFD
007805C
0063DF8
1A93F03
06A3E4E
1D4C15E
06D3E6D
02E0165
05D3E08
179BE4F
06ABF3E
1CEFE67
06D3E6E
19CC0DE
027C00F
1C1FEBF
1C94048
0947EFB
1EE3DA6
1A43F30
06DFDCF
01D8202
17EBE9A
058BEAC
1FF7E12
19D0064
0213E44
1A03DAC
1FEC0CF
1A58101
1A77E0C
19A3F11
1EC7E46
04D7F88
1617F84
17E3E48
1F43FE2
1A57FE4
073819F
1D13D97
07E3FEB
08E4088
1B6C1DB
1F1BEF9
1928241
1D48238
0783F52
07EBF31
0894022
0997E85
0834091
1CF4124
0A0FE92
08B3DD8
09CFFB9
09C3E73
1BA8111
1D901BF
0240173
166810E
03A0197
0153FD5
1A9FFB6
054FE06
057FE74
00501E3
1F93EC2
02C7FB9
1F78206
1608023
057FF08
1B8825E
1B3BD84
075417A
040417E
1E8FE28
1ABFF39
09701C1
1720001
0983ED8
0557E5C
02CFDDD
09900AA
022BF18
1FBFF49
051BF58
04AFE89
1D8825A
1D00019
09F81CB
183C24A
1DB4002
0504156
1D9FE33
0090052
05B7FFF
0563ED3
02080BB
07E4237
17C41E5
1D6FDCA
007409E
00FC20A
01A7DEB
0077EC5
1D4BFDB
181FE68
164417A
1870074
1C4026C
0734089
0097DDA
1627EA3
1C03E73
0167F2B
064BD7E
01E00A5
0814108
1C3C190
05E3F00
162BF63
1E37DE7
01DBF87
1954202
1B2FF26
0193F7A
0354004
04D7FBA
1E54144
1C0009D
044FDFC
095C23E
0023DCA
1EFBDB9
04E8149
0828146
08F7E58
1814018
03D8052
03280DC
1EBFE93
092FF4B
08E3E8A
077BDC6
193FF9F
08AFE02
02E3E55
061BE29
1637F3D
1618275
1C53F2B
09F010C
1E8FEA2
01E3D91
1C40134
16381E6
1A4BE58
1D2FECB
064FD7D
1897FEB
1A6C11D
18A4128
06C00E8
0077F44
1E20233
047411A
17FC095
0038273
02E0145
15E4272
04B3EC6
04DC26C
191C1DD
05340E0
1C47E14
1D53FA0
02B4085
04B408D
1938239
1E04257
09C0109
1AB3EC9
19A006C
08E3E3F
064BE46
1F1C1ED
0117E39
05D7ECD
1ECFE1C
168FEB0
1757E1E
16F7F9A
17EFDAD
1BE0261
16E7F40
0860276
08BC00F
06241BC
1B43F7D
08F81E7
1F9BDC4
067FE20
16BC186
1A63EEE
0783E83
0980067
0428152
1DD8235
0193F08
095811E
1BB815E
19B7DC7
03D7F3E
0227F7F
0407ED0
03A7FEE
02A3F34
1D0004C
055BEC4
1C53D79
19D7E11
020BEA2
05F006A
1DC81BC
18CFD9E
1E38030
1E2C175
196C1F0
0798252
1CF81C2
079FEB6
1A440F7
09DC048
01801FB
00D8262
19E7F6C
00A4209
165409A
08640C0
092C0DC
02A7FD5
1DEBDE2
014C1B8
1987F28
074C069
0927FD2
062FEC1
00DFFFE
06441E1
18CC108
1DFC0BD
1C3426B
00900DF
1ECC278
03E7F26
1FDBE17
084003C
1EEC269
03800F0
175FE68
00E7F32
1A28228
1FABDD5
1E17F6E
0570025
029820E
065C0A9
1D2BE78
0958177
1A73E37
0597DC8
1EC3F6C
0394058
06F810C
1A3FDF4
07900ED
0703DF0
1617FF5
03FC043
1D7027E
1A5021E
05841CD
1613F9C
012FE50
1F48036
086BF78
0678218
082BE2C
03FBF3B
1DD402B
1827E82
1FB8190
1B6812D
1E7013F
1908232
1BB810B
03B7DF4
02EC07E
05AFFEF
0790112
1FFBD9A
00A3E3D
06BFEF5
07BFDB4
176002A
1BE3F07
16CC04E
167011D
08D3E38
1FDFFC2
1BD3E89
0388035
1EF4010
15FC237
1E4C27B
18E3F1A
1E4BF8B
04000CB
0367F95
08E8242
08B4230
0710284
02CC206
0730166
173C191
19D026B
0087DB3
08FC173
1744086
1BEFE70
187FDEF
011BE3C
1FA3DB3
1D681F8
022FE77
037FDDF
1FB3E3C
176FF4B
058C0D4
0338190
01D01A1
00B7E49
04C7EA6
1C5C1AB
099FF4A
1BA7E01
18441C5
077FE92
1637EF0
0163DA4
09D005C
070821D
1BE0282
02BBED9
05ABF00
1B4C111
045020B
076FFE1
068FDD1
06C3DE6
1EE0182
1F77E98
092004A
178FEED
024FE71
1C2FDE7
18D8070
0653FA5
07280A9
02ABE60
090BFAF
02DFF48
1D53D7C
0023D88
0653FF3
1BFFE28
1D3C1C2
1ADC0B9
1F2FDFF
099C02B
07FFE71
1FE3F4E
1DC40D7
176FF8C
0677F1D
05F019B
1EE80A2
0947FDF
1C00079
06D4227
0A1C040
1D1C14A
1B1BDE9
01B3DD1
1FF7F5E
08681F5
1F84246
19DFFD9
1673F14
1E4BF0A
0878136
1BFFE98
0454002
047FEBC
0A1BE77
1A70201
0857F18
050FE5F
03F3FBD
18B8019
1BD41FD
18FC204
182BFD2
043419C
044427B
1E77DD2
02A7E79
191007D
01CFF47
1FB8246
0837F97
03F7FED
0020276
03DC215
013012F
1AE01D1
01D7E43
0860205
1A901E2
00CBE19
014C0F4
052C1DF
1AC7D9F
1F60029
03DC287
1E701B6
1F8BE9B
0224041
17DFFB3
1A5FEA7
1803FA0
16FBDB4
02A7FF5
08AFE56
05001FE
1CC3F5A
1CDC110
01E3E97
00440E1
1BFC0C6
1D80040
1934200
05E4169
1913E37
1E2824E
00BBE16
1E17DD2
0960168
173C1C2
1F200B9
09B3F4A
01F003E
1CE816D
1870058
1B38230
168C19E
1E6415F
1A97EC1
1C2BDA8
161FD99
03D80AF
095FEAD
1F8BE45
1B0FFAF
044FDBE
019C1A5
19F80AA
07980F6
18F0065
08841D3
05EBF75
1ED422F
19B7FED
026BFF6
079817D
17FC0CD
07E8231
1CB7FE8
1D7FFD9
17A41B1
1D5FF21
065800B
1F34227
095012E
1E17F00
044820C
08D41C2
03A416E
1A180B6
1B3421D
1F8C23B
0933E12
079802F
0338131
179C21F
079FDF8
00B4106
1FB7DD0
02E3ED2
06E41F2
1763FDA
07DFFF9
081BF47
1D94066
1CF3FF3
1918230
16E7ECD
0488052
05CC0BD
162FDD4
163FDE1
09B7FFD
0287E39
089FFC0
1DBFD97
15F00A6
1C83E00
01C410F
1737F33
1793E7A
00840AE
03FFEE4
1E9C205
036BF24
19D41D3
0458093
05CFF6D
074BEFE
000FEAE
1A33DC3
020811F
1FAC0CB
07D7E88
1D4FF2D
0658266
1D5FF06
1A2FEE3
07D416D
040FDE6
1D1FE7F
1FDFDA2
1F5FE06
02FBE7C
1C3FD9B
0093DFC
171FF9D
1A30231
02481DD
1710058
00D824F
1904074
1CE41E9
1DD40A2
01E7F88
01B01F2
042C0BD
183FF82
015BF1C
1E3FED1
01EBECC
1E8BFB5
1B77E8E
179BDC7
0368165
1E200A7
06601A0
18C3FFA
1CCC15A
1E58051
01AC098
02FBFEB
1D5C140
1683D80
17BC022
1A200B5
02FBE9D
1FE7FE4
007C16B
00A7F50
03DFDD9
16E3FA1
00BC152
1CCBFE0
18A7F3C
1BFFF66
0664197
1ABBE72
045006B
16F0190
029C063
0537E64
1DC4192
1884025
167BFB4
1727DF7
0293E9F
007815E
06A0013
0643FC8
1A03FF8
007FEA5
0827F1B
024BF67
092418A
1B78159
0013F47
08BC09A
17A816B
1F67DA7
1F30042
0A1C12B
032BF96
01501A8
03C7E43
015001C
0808116
06E4009
1994213
0358222
1E5BFCA
07FC190
062FDF9
030FDEF
0150083
1CAFE2A
1F48237
07ABE93
1A4C1B9
0653D96
189C202
1C9011A
08040F5
07A408C
18041AE
176BF99
1B6FE6A
005823C
1EFBE5D
09340BC
1C1C1A5
04DBE97
0627FB1
09E40AC
05F7F05
08DFE5B
084BDB8
175022A
1CC0271
1A1C10B
1D57F91
0247DE7
06EBE3B
1B801AD
199BE8E
1F53DD3
04A3F2D
1ACFED0
07A4246
07A3FE9
1C101BE
017FFD4
18B00F1
09C3E21
08BBF27
084FDF7
0673D79
18E01EE
0338171
1AB813C
1B0812C
1C681EB
1B83D7F
02D7F2B
18D4227
040BE90
03C414B
18F7E56
0257E9A
00DBD84
1F07F72
047FF19
169C0E6
036006B
1B1FF3B
17B80FF
1E7BE56
01E7EE2
1EC3D96
18D3E84
0127EEB
18C4281
1D701AE
05F3F3D
0433FC5
1E53F7F
160BDD3
1884094
07E7E45
0893DB6
02E3E79
0007F12
1CE7EF8
006C222
1793E72
0293F54
035C1C2
02DC216
19D41A8
002C19A
194C1AA
1B301AC
1DB3EC0
1964147
1C640A4
0818226
00FBFC9
03D7E68
17141AA
07E81C8
09D8101
16D823C
1B8FEE1
1EDC02B
06F7D90
070BDCE
071424C
1AF7DEE
0A1804C
17E8262
01E002A
1B5419C
1A90099
17901B6
1E6BE8B
008C0C6
03C818B
06D012F
0100240
0524137
053FE26
04D7EDC
073FFE0
00D01F6
07F3FF1
1783DA3
19DBFA6
00C7ED6
1B4823A
18CFFD4
1C0407B
172C04F
000413C
1C8FEC3
1643E83
1B280CF
00C81B5
00CBF34
1BFC1CA
17C3FF9
1A63F17
0397F44
1673EC7
0587F14
0483F5D
0373E48
1F4FEA8
170021C
16C7FFD
04E7E46
099411E
01E8008
05FBE43
1ECC0EA
19DBD7F
063C14D
09D41C2
02FFFA1
06B411F
07F0221
18DFF57
02B3FCE
09F7F8B
1F6C1FB
082BE23
1D08019
0967E2B
0224186
05B7E4F
00900C9
07ABF94
166FE0C
07B40AB
0680186
0204229
1A00204
0887F49
1D9BF34
15F827F
169419E
19EC20D
1E9FD9E
0290279
19B41FC
01B818C
02200B6
0794125
19FBF39
08E3EC3
046C08A
1FEFF0B
0013F11
1A4BEC0
015BF25
1E23DBB
015C06C
020C00C
1E74250
01740EA
1AF7E10
074BFB9
050BE9B
0143ED6
17F3F6A
1D7C25C
01B80A9
02B3DBE
1967ECF
170C02D
08981F3
1D84164
1B5822C
1B000DA
193BE25
0607D8E
16CC12A
05BFF99
084C036
1BE3F76
1AE4001
074BEF0
175C1B5
07BFF8D
16FBD7B
1E6FFD5
03140B8
17680EC
00E008A
0227FBB
172BDA6
0388279
028FD90
07380A0
192FEF6
00E3E87
058FD84
1A53DA5
05041BA
1917E0C
1BD3F6F
02C7E9B
1A5FF64
1D681D3
1BC3E48
017BD81
08CBFDF
07E80C4
1ECBF9B
1983EF2
1FE8145
171FECC
1FA4186
176C036
067423C
08A4034
194BD8E
0350013
067C1E2
1BF3F33
1A5BF41
0467EA4
05C4220
1C18055
0043EE0
07ABE7C
0477DEF
1937E31
03441DE
00FFD8B
0720055
1C9BF05
17AFF86
189420B
0563E2E
02AFE66
026FE72
04D3EB9
1CC7E7E
080BFAF
1B90160
1E94021
0370194
08E805E
036C239
16F3E52
046804F
09A3DFF
1BE824A
1E28006
09E7F0A
029013B
08A0222
06CFEDA
1FE410D
0403F13
1A3C109
095FE85
1A83DA7
1774202
1A240DB
0200141
1ED41C2
08D0279
1A340C1
1E40088
1990243
171C1F6
02A3FE6
1D13EA8
0990241
1833EE3
039414D
1897FE0
17B8278
020C196
06D3EB4
1A17EEF
059021D
16E0208
0393FFE
058C0D8
073004D
021FDDE
1F6C215
1D701C4
19A8070
1F03EDD
19AC242
050825A
1A7C182
0600156
180BF29
1AF3DB1
09440D0
0618058
055FFBF
1BE026F
060BDBE
0827F9D
06AC1B1
1B94180
1F74107
0448041
1B57EF5
1B17DCE
0207F83
04681E5
15EC034
1990011
1EE01AB
05BC1F7
04680C7
08CFDC6
01B8114
1773DA1
1F080B0
1964204
176BE03
0024093
1A9FEC4
09FBF44
1E840A8
18CC1D0
021FE11
061FE5A
06B81F2
1D8C1CA
181C219
04FBF6F
1DE01D2
017016C
1B28092
16980BF
06D8221
04E8115
1BFBE99
05A8275
00A80F5
16D4077
000C225
1853FBD
04A80F3
066C216
1983F75
014BEEA
1B2BEAB
1B90262
099BD95
052BE84
0963FE0
025FE06
1EB4167
1E47D88
17E81F2
0853DAC
0753FB8
1B4FECB
1FB7F58
0638135
1D6013C
1DEC249
09CFF06
1D4FDBC
1E500A6
0860279
189803B
1FE7E40
0147DFB
19081A3
187C015
1FA40B1
187C20C
0473E75
044BEAA
09E7F73
1A8C1AA
1827DED
1F87E6F
1E300AD
012FEE5
09EC27C
1E57F92
00DFEAA
06AC163
1730101
080BE9D
02AFF0D
1BC3F08
0323E70
013FDA2
06201B6
027C016
16C7FE0
1D13FF9
1CDC020
1C4C08F
04FBE1C
061C063
1B83DEB
03A3FE8
17001C7
1EDC1EA
195C143
09C00E7
1B57F7C
02D7F1B
0473F2D
05D0175
1FB4148
19301BA
02241C0
1658019
1FD0259
049C078
01A7F88
1EDBDDC
05E7E79
1F64213
1D0402A
0788225
1B83F12
00BC227
16AFE34
17FFFCB
1B74091
1CB40C4
04D7F4A
00C81C5
039FF14
166BE4C
049C15B
06DBFB0
0813DF7
1AB4250
1ADBF81
1D73EE3
02C7E2F
1F98205
0608040
18981BF
188FEF5
061BD8C
16FBF36
0827F81
07280E4
05300CB
1CF4244
0380110
1B78015
1CA7DAB
1B5BEAF
161421B
06D811A
1AAFF55
1E0C060
194BE55
028C069
1BD8249
02C00F6
09C3FC1
02AC22E
0023DF4
1EC7FD9
0493E34
1A2819F
1C2C286
0023F29
1BDBFC9
00F7DEE
1BD7FBE
0337FE6
0097EA5
02E3F01
08C3FDC
16A40F7
1F0FFFD
03BFF1E
039FE73
087C225
08C7DE8
09F400F
19D816F
1767EEF
0588014
045C235
1F33E49
1C98224
1B2FE92
16DBEF3
01CBDA9
179C140
1CFBDE9
046C08D
164FE80
0780062
00DBE7E
04CC01C
1690249
09E803A
0503FB4
00700F3
17EC1FD
1FEC09A
0688054
1C180BC
16D80FC
1987DF0
083BDBA
01300D7
19EBF5A
092BECC
03ABFC7
1897F2B
01C7DA6
1B27F7C
166FFCD
1DBC04F
184C02B
075FF02
0750143
1FDFF38
19E413B
049BE0F
1E7FE2B
1B9FE10
164FF58
094BF5B
00D403F
16041F4
1684018
1FD402B
023BE7C
1F83F3D
005C239
170C000
1858249
1A0BF04
17080E9
02A40E6
1A84011
0334148
003405E
070FF73
04CC162
024422A
1F9003F
1D200D5
17C4199
0973EA8
1C80111
16AC235
06F0256
19480A4
1BD8082
084BF5E
191BE3B
1A0C24D
047BF00
1D2C0A4
1D63D94
1D48163
1ECBFAF
06B3EE8
198810C
058BEDA
05E3F0D
00FBDEF
063FE42
162BF4C
1AB3E4F
1C13D89
014BF47
02381BA
18C416C
16D004B
1867DFE
1B67FB3
03F81AB
1CB4218
0183DB5
1A83E8B
024C171
1733FCC
1BDFE8F
0973FB9
163BE44
179FE4B
0020128
08CFEDD
16E3EC6
1E83E37
1FD825D
1EF422A
050C0B1
17FBFAB
1AB404C
1B77E04
1DDBD97
0217D79
09B016E
020FD93
0513D94
185FE6F
19140F3
0114225
081BDB2
04B3DF1
193FEF7
1B3FF3E
1BA3E72
05BBF44
019C01D
01E820C
18EBDB6
06281A7
1E5010A
190004B
0533E80
1C24052
0294274
006C04C
0448243
02ABD99
09ABFCD
00F3E9C
09041D2
1EB7E48
1A840CA
03C8165
02701A1
1AF405A
176C112
1C8BF51
1C2FF33
18E0259
096FFAB
1EEFFE9
03FFE7F
1D08227
034FD94
1893F64
1F5FD8B
183C00A
17BC0D2
09340B2
0407F24
081BE3A
0067DD6
07D7EFB
079FE45
1700265
0828053
1E98175
052C066
19DBE40
1F1FF07
06CBE61
1EA81BD
1E6BDA4
074404C
05C0015
0077EAB
07FFE32
16201B7
03D400D
00CC135
1A0BE9C
1CAC065
03400BD
03B7EAE
1F0019C
16D0262
057FF5B
03F8064
1CD4033
062C178
055BED7
1FEFDF8
16A4272
0673F46
199FF57
07F8012
06601D4
1E3C0BF
093C1B1
0858045
0083EBF
07FC1D0
04D80E2
0268284
1AC821B
074422C
1AA3DB4
0428076
05D80F8
1890007
1664249
0447FAB
1F04012
1AC81F5
185C161
05F81C9
0547F72
16401B6
1BD420A
09C4169
0978186
1D7C1B3
1A440A2
1DAC284
1E6BE72
1CD3E74
075016B
1F67E01
1B40075
00D4262
165BF99
034C1DE
0234105
1C701C4
04B3F35
1C9C056
1AE3E11
044FFC0
09C7FF8
087C195
1CE3DBE
18EBD93
038C176
08A426F
0387D95
06D8140
18EFE78
0927EDA
09D427E
00CBEC4
0897FEB
092C02A
1897F15
05CFF0D
1820129
044820C
02C00EA
185FF23
0124004
16180DC
0A13DF9
1743FE4
1B87FE5
1ADBDD8
09F816C
0778144
078BEB5
18D3E62
007FF14
01A402E
09A3F70
1EDC10E
1DFBE78
1783F68
08141A5
1B480DA
0618030
195BF22
00FFEDB
04D7EA2
07281D6
1E700C7
01B01F1
18F4046
1F3820B
02A3E9B
062C101
04941AA
1E4BDAF
1A7824C
1DABFFE
1EABDB4
0148025
0A07EE4
18F4164
1A700AF
033BE32
01DBF69
05B415A
0A0C077
03F40A0
1DA0137
0108038
1AE7EEA
1B73E48
16EBE77
006821C
0643F23
1D381EB
07001A9
06A8185
0153E60
08C0190
1C0BE13
04E7D7C
1663F33
180C22A
05C7DFA
1847E52
069BF79
1D03E86
166BE8B
1B23EFE
1D83DE2
1723EE3
198C1AF
0207F61
1808118
058801F
18D419F
01A0228
1D4C135
05141AC
05FC180
085C182
0653E27
04E8203
022FFCF
075BE52
19B815B
181BDDB
1E37E07
1F87DBA
1D6820E
1C73D8B
03D0006
1BA00DC
0597E3D
1F240CE
055C072
0273F7E
0263EEF
060FF4A
03C412D
17D427A
005FF6C
05E4239
1D8FE26
17EBFC0
1A93F23
1D580D2
198FF17
1EDFF75
1E2FDB6
1E83F93
025C1B4
092FD93
099FEB6
0077F47
02F40AD
1E6FF0D
1D501A8
01B825F
0520090
07C7FFC
038BFD5
0934165
1AC0112
07DBF6A
08A81F9
1CCBDA8
1627FCC
0280224
1FFC1A0
08681B0
03BFFD0
00DFDA0
1FFBE85
0360132
18A3E0E
039404A
0877FD8
162011C
04ABE7B
09C8048
01981AE
0887DEF
1EA406D
0903EF2
0530053
1F77F12
1673EB8
07B0183
1DF405F
08A80E7
067BE82
00D0244
01FFD8C
04E7F6C
00C3ECB
186FEB3
1643EDF
183C1C8
0970270
0503F91
1BD40F8
0074048
0648106
02BC028
0043F09
0060041
06DC233
092FFEC
1A1BFA7
1AEBEE5
1B68225
1BDC1EC
1CC3F9E
023419F
167FFAE
1C680BC
17D3F20
19F006C
0693FD0
181C1E0
03DFE35
05E7F89
1ECFDA6
05B7DF6
1FE3DF3
025FE46
1F07ED5
1767FE3
0007E11
1BD3E87
05D3DE0
1F9BFC7
0668273
174BF54
1D4BF30
193FDB6
067BE82
060FFB9
1B18083
0903E26
0074252
0207FE9
072BDB0
1A94250
187FF86
18A7F54
1DF3E7B
03E017B
193BFD7
1BF005D
05A01FC
1934266
077BEE1
1AB41F2
1DC804E
077C284
04CFEC7
18ABEFC
1D100E0
0893FBC
1ADBE3D
02BC24A
0237F80
16BC0E9
08AFFB9
1B47DA0
197FF2B
0837F90
1BF01F8
1EF41E3
1B0FDF2
025402A
081FE6C
1DAFDF2
1C2420C
1D5BE55
1B780EC
0947F9A
09E3F75
05481C2
084C03A
0968279
19DBEDC
09ABED9
049BFBD
1F14035
014802E
0887EDF
17FBE54
018BDC6
198014F
1C4813D
1ECC1E8
01DBE74
07D3F8A
0433ECB
03E7E35
04D0227
16C4073
1667FF5
1C3BE69
17A00E9
0833E94
0690172
1A03FCD
1F13F75
1FDFFBF
1B4C1E3
0788273
0454040
19AC0BD
1DA41AD
007BEB6
1BA81F2
1EB8054
019FE55
078BFE7
0457FC3
0097F46
17ABEEF
0877ECE
056FE7B
05EBFF0
1EC4117
1ABBFB9
033FF9F
03C40BD
005FFB6
0817FF3
1D9C120
0920248
1AA4201
1AB7E6F
05F3FFE
1DD4131
02201B4
1E94086
029FE38
005BE56
0818016
1C9BFAF
196419E
0230055
0573F0A
05D3F3A
1857FA6
1E0017C
1C64211
009FF57
048BE6D
1FFFEB2
0430275
05EBECE
1B4FEBF
1AABDCF
17D3DDD
1D88137
0570228
0617E64
0893EF3
1AC3F52
07FBE5A
1FF027B
1F64162
07DC018
008FE30
182FDF2
1870055
16A3D8B
1727E7F
07AC261
1DF8071
181FF21
00481E5
1C341C7
07C40A5
1B9FEB8
069BE2C
1717F0B
18DC14E
09FFF13
1AFFE96
009C0EA
075BE1B
162809E
006BE94
0604173
1DFC230
00D4265
094018B
19DFEFA
1FFBFCF
16D40AB
1CC822B
1993E76
173008E
083C1CD
078C15B
1D14267
003C208
0483DD9
09AFF12
1EDC22E
18301E2
059C26B
1A53EC4
193BEAE
1677ED3
0673F86
0033F2F
183819B
048804B
00BFE42
173FE84
031C04B
090BFD5
1D7C14B
03A7E1E
04E8056
00E4274
1D34264
09F400C
068FF81
052007E
08CFF7D
0643E97
0387EBC
1F8BE61
03E0151
1CDFE8E
1A28162
186420D
17EFE63
05680C3
1D8811F
089BDB8
0107F76
1E2BDDA
1D23E2B
1E43EF9
17DC097
063C163
1667D91
08A7FB0
1F47E78
05D41A0
0694117
0118103
02BBFEB
1D07FA5
1AD00CC
19240D8
0938279
1CABF24
1A7FE48
04581F7
083FE96
0830049
192808A
170FE28
1E13E2D
1B4FE5F
04A012C
0944094
0044084
1F90144
1AFC0DC
196C21F
1F1BF42
08BBF29
0198104
1B5BFBE
0090140
034FECD
1793DAD
0943EF1
1AF3E5B
1A8FE23
1CF8028
18EFEA0
1ACBF11
09FC11C
177C1DC
09480EB
0818049
052823C
043FFF9
1E47FD4
19D7FA6
19E8146
1983EB2
1EB80CB
1D30187
1B040C2
196FEDB
1CFBD97
1F6BDDC
04D826E
1C33EAB
060BD9D
19CFE47
097FFF5
1C5BE1B
0103FEF
082FE7C
081402A
1757E9B
1A37F14
004FE0A
19C4075
099413E
001FE77
1F6BF6F
0983F81
1CA4066
06FC1B8
05C821C
0488052
07780BA
09BC1F1
02FC04F
0118041
06EFFE5
192BF1D
0063F56
00C7E91
1F3808B
193C0F4
1D90092
1D33E94
1F37E1B
0057F2B
1B7420C
03BFE54
060BDFD
00AFF8A
183FF56
0694171
1837F36
16A000F
029FDC9
01301AA
010FDE9
09880FF
05740EA
07B423E
1E80279
054804F
18DC137
0757E16
1A581AF
1EABEF4
03481BD
02D3E11
18741FE
0A180C1
1E9C1F8
051C082
038C05D
166027E
04B3DD9
1D13F55
17FFF22
172C0CB
183C125
05AFD83
089016F
077FFB8
032821A
19201DF
0107EDD
17DBFD6
1DE3E06
15F019D
0668178
060003A
0283F6B
1B07DA8
17EBE11
05540C0
07A0042
08981E0
1C9FF60
032FF90
19C426D
1EABE7F
06301C0
06F81B8
1A00152
029FF9E
1F34029
0407F5C
1CF01EF
16E3F2A
06BBEB1
063C04A
009FE58
037817A
1F33E0B
07AFFAF
1BE4279
176C119
0707F3A
1FB415F
051820F
1F63EB1
178C0D1
07580D3
0107F4C
1FC011B
0403FD6
1B7BDAF
18601DE
097C175
04D7FB2
0087DBC
0193DCC
1D2402E
057C101
1AE01E1
06DFF46
1EEFEC0
1CA018A
068FDA9
16B3F32
0517ED7
167FE1E
198FE9E
1B03F4E
1AFC01A
1840046
1A8C0C3
04EC22C
08F3DD0
03ABFD7
192C182
00EFF31
1A47EF8
025FFE8
1DA7DB4
16F7E98
1D53E32
1968205
18A01E1
1727E68
1FBBDEB
1850193
088019D
05ABF79
15E7F21
0937F6B
046FE17
09A006E
01AFDD8
03B0065
1FC0181
1C3C118
048C0A8
09701D5
16DC0CB
05BFDEA
0120239
036005A
07740C0
066FE51
03A7EC2
0067DD9
083BEBA
17E40EF
0113EC8
17A40DE
079FE19
090FF33
091C048
1F50182
16B413D
0038173
00F7FF6
1E47FD8
00E3DB9
1E7FE7B
1B7C1E8
0983D99
069BF20
08CBDA8
03BC1FC
07281BF
038023D
16D7E6F
06A3E67
1DC823E
0644091
1C2BDF0
098824D
0428123
00A0029
0597E7F
0A080B8
0687E3C
0733FD5
075411B
16DC069
052C04F
1B7C035
069FF79
07EBFF6
036FF91
0510109
1E4FF6B
17D81B9
1D24194
06C80FE
1EFFE20
02C3FBE
0418086
1E9C239
08F412F
19680B8
0803E16
182BE45
0217EB9
1768124
02AC1E3
1BC4244
1907EBF
060BE77
049017A
1953DE8
19CC12E
05780A5
1ABBE11
1B44071
04FFE16
093822D
01C7DF3
0463F61
1EB0113
06DFF60
1D83E0F
03E7F13
1EDC066
024C058
0640020
1DC000A
1F3FF41
192BF6A
18D7F41
177C24F
17DBF45
1E04179
1804247
06A009C
17C7FFA
1F7BF24
0534241
18BC0AC
0477F1B
05EC1FE
1FFC1E6
032412B
00281E6
1D50260
0884006
1AF3DD1
1C8025F
1D2BECC
07ABE0A
03C80E7
1A3C177
0617D80
1917DA5
02900B3
02AC186
053C1E1
06CFF09
06CFDD2
0843E40
1EF7D88
013BDE9
0667E6D
07ABD99
1CA81C2
1F9FF04
1CC7E97
040BFA8
05E403F
188C1D2
1AFC0A8
0193EF3
1898061
098FE96
1F1C066
1847F62
1C48191
1EFBE03
0898056
0178172
1CEBED5
0017E90
1920121
074FDC8
02ABECE
1F4BE1B
09B815A
0808179
044827E
1A6BF18
1CE7E4B
00C7F4E
0167DD8
186FF55
1AD027E
07B3E39
0137EA2
0203F9F
09E41C5
19F424B
06901BF
00E806E
1E88255
03180E0
03B3F70
0863E36
18E8180
00EBDF5
1DB0058
054BFE3
01A7F0F
1CD3D90
065C270
1A48287
1E8FFF4
1AA810A
1B540EF
16E8282
019BF26
08E3F5D
1640164
08CC0AF
01041F3
025BF9F
0883ED0
19F8243
1E300EB
031C269
008BEF7
0863EAB
07E8070
167C21E
1610090
1FBC20E
17500A3
18ABD7D
17DFF45
1E73E83
1BCC264
1C63DBA
004BF7B
1DF3E6C
03CC02D
1A04011
079BE4B
0917FBB
0017FD2
0A17DDA
188BF20
098BF39
062C0A0
16441AB
0014206
1C5BF09
011C239
0560193
00400F5
04A7E7D
1D9418A
01D3F53
09600E6
18B01E6
1FAC1F7
0274045
1BCC076
01EBFD5
080C260
1D7BEDC
163BDE4
0908060
1898083
1923F92
052C20E
054BE25
03B8094
1E0805F
174C1E6
00D41C6
1AF7DF3
1B27D89
00CFEFE
07B4257
056BFE1
15FC263
165FDDD
194BE2F
187BF34
00B41FD
189BF96
1610092
0587F45
188C10D
1B201FD
00E3EBF
1C63F09
0A0C24C
1FDBFFC
18C3EC3
1CC3E89
0507F27
0593DE2
07841BC
03C0113
00FBE87
1D4015C
04E3EA2
1D0408C
016C0F7
1A6BF70
013BE60
1AE0264
02D426B
056FE4A
0644076
1FB7EB8
1880166
013BEC4
183C0E8
1C30148
05A020E
04AC004
1BC4074
1F5824A
1D27E0C
070FEC7
01C3F75
1FB00B1
073812C
0377E8B
0887F70
195FFFB
1BDC26C
19D3E59
1923FEE
0093DA1
02CC0A9
195C04F
1FC00AA
08DBFA8
09E811B
09541D6
170C027
09D41E0
000BDE7
0557E40
182BDCE
1990055
1E681FE
192C1E4
1984158
08CBD8C
02080E1
0393DED
1987FFD
19ABF61
0224237
1D64011
029BFA7
191C03E
00E425D
01680D9
172C0EA
01EC09C
07681EF
00C0171
1C30135
055C254
1F83E50
1C73F57
1650081
1B07FB7
1924102
044813B
1617E7C
1A34208
0018161
18F4128
164BE6B
052BF85
0157DAE
054FDFF
05201A7
1CBC25D
05FBEDC
1EFC0EC
1ED01E8
0A0C149
033819F
07BFF52
183FF38
01B8182
04BC050
010BFB7
05E0221
1C5406C
05C3E28
0047F7F
1B001BD
1CBBE5D
1CA7FF1
0168012
1BE7E0C
1EBFE17
09EC16C
0623F06
04A3E02
17781CB
0693F8A
06E0240
192C049
01D4217
02CFE0F
1AFBE43
040C0CD
084827D
08F3F37
03E80ED
168FEEE
1CDBFFA
18B407A
1F97FF8
0A1004C
06F3EDE
1F67F36
034827D
0260032
03EFFCC
1AF01F6
16E3ED0
06AC044
1888170
008FDD9
1EF810D
0497FEC
16B7E5E
1BF826A
062C08B
1BD0022
0048046
1FDBE5D
1AC00A5
012C16D
073BE2F
176FF8E
1F8BE85
020C278
1B540D0
028C1E5
1AD3D8F
0427F73
17F01DC
17BC072
1D97E8F
1E7C072
084003C
184FE44
197BEC6
068415E
054FE06
1B83E02
185BFF6
1D1C080
0270000
07A3EE5
17B7F80
17A3E3C
03A4158
048826E
0A1801D
1E5FECA
1CA7FEC
00F0271
1840226
196C16A
1CA7E62
0840151
012FDCD
0927F59
00641CC
06F40FE
17CC1C4
1A7FEFE
095BF30
193FEAF
06581D2
075BFCA
184C0BC
187021B
0577ECD
1887DE4
1A4FE03
03D3F79
1A80159
0540050
167BE3C
09D0260
0353F6C
1E681C9
1B3803A
0273D87
04340F2
1BDC037
040C0E8
0610180
040C200
0163E1D
0703FC5
06D7F1D
169BFC0
083412C
006C0FF
1DFBEC7
04080B9
05A810D
1B480B8
05BBDEB
1F5FD95
01D4060
0687FE5
1BB3FEB
16CBF3C
1D03DAF
195BE24
1B57DB0
0653D7E
1B080BB
0360101
04481DB
16CFF6D
17B4250
1F63EB9
01EC059
04DBEC1
1B58111
16B801B
0613EAE
163FE05
1F480FA
1D73F1B
1E3C19E
16D7F5F
055807B
0450282
1F64282
1A4BECF
04B0032
031427F
1B181CA
02F7F4F
1E801DB
07A4130
0813E5B
0947FDA
02DBEC9
09EBD96
1D0FE46
1C6C10B
07C7F38
1B1BF98
1AEBE18
0207FB7
076C0FD
039BF44
198C1E3
1ACFDC3
0523F3F
1E1014D
0070080
0834268
17C80A8
05540AE
021C1D6
1873E9B
0927D81
1E781E3
1FCBF0F
0393DD8
02541CB
0623DDB
0644136
1FF0027
1907FD3
16A00F2
09B4144
095BFC6
07A426B
18880D6
19B4178
1D8C26F
00A402B
07F01E4
1B8FF17
199427E
1C9FDDC
1F4C164
1A1BF2F
05680C8
09D0112
16C4035
05D0264
1CE4130
087807A
07141B9
195FDD6
1AD802C
0113FA1
18340DB
1E500B5
0737F30
02EBFD4
0967F25
1C67E95
072409A
08BBFE6
010420D
022FF95
0103FD4
0070054
1B28031
173BDB2
013FE95
002FF8F
1C1BDEB
00B3EF2
1ED7F65
1EF41FE
076BFD2
045C061
1F57E98
0137EB3
01B3F95
18E01AD
1C6FE51
04DFF2A
088FEA2
184BF18
1FD7F2C
01B81D7
1FA3E33
0763F24
1F57D83
075C09D
00C809F
1DABDBC
169C05F
05D826D
1BE3D97
05C3ECE
000C1C0
18EBDD0
1734211
00E3DFA
18BFD87
1F001FB
171BD85
03AC0AD
1F880E8
196FF73
19D4287
199FE05
1FA4239
1ACBF52
0673DC1
186C1ED
1D4FEF7
167022C
022BFA9
1BE0251
1ABBDAE
038FE4C
050BE57
05EFF3C
01D3E66
086421C
0280164
000C08A
1FCBDDB
1893FBD
08FFF7C
0493E14
1ED40A7
03D3F90
086BF54
1960013
091C204
02A025C
0544018
0257F76
00C422B
06C3E62
1BFC0CE
045BF21
186C05E
1E37DD8
1A93F59
1E2816C
1D941A6
0A001C3
0A1C222
0843F2D
04401FC
025C166
0723F09
173BE9C
089FE94
1E5FE2D
07B0054
07BFF4C
091C15B
1B83F73
1677E1E
1CB015F
0963F08
1933EBB
021BE86
1E6406D
04B3FF0
03DFFB6
00CBE89
1B68167
16DFE01
088C017
03B406B
00D41A1
1B47F82
1993E4B
1B7C01F
0927FD8
07EBE0A
1DA3EDC
0060008
01EC1F8
198BF0A
08D7DEE
1AC7FC6
0903DE8
020BFD4
009BED9
1C4BE66
0327D9E
19D4244
0598267
1F7FF15
04B827C
04BBFD3
076BDC1
19D0060
17B8248
0277FAB
1B23DED
1E13E40
08E4078
1D340D9
1CA0226
174BDBF
01BFE77
0687F10
1D13FA4
0624184
18B01C5
02C3E54
0957D97
1923E5D
02E8281
08B3F39
1B1BF25
18E41D0
1F5FD7B
04240EE
1813E74
0113FB3
1673F36
1BC806A
0327F59
1CBFE38
162FE69
001BE30
0164140
072C17C
07D0213
19DBF91
0224272
054C0B7
1AE4150
02C7DBB
068BE45
19DBF50
1A77FDD
085401F
1A4BF93
040FDE4
1D1C195
00D7E4B
1DC0010
1DBBFF9
07E0058
06B01BA
1DAC0EE
1BA4207
1BA819A
1E74030
0893FEA
192FF63
095C1D3
081BEE3
0277F1A
047C06A
195FF51
0150150
06581B2
1997F78
03C422D
064BDEF
0883FFE
16A801C
03A40A3
19AC248
0A1BF96
07600FF
1BD0169
07741AF
17D0276
05BC069
020C19C
03A3DC2
02B3FCA
1DCC23B
01E0108
1943D98
1DE3ED9
05201B5
1D07E27
025BEE4
1AFBF43
167C235
17A80CC
05A3FD4
1EA3FC2
1608196
071FDBE
036C016
1D14277
16CFE84
05F3E17
012C024
173C27C
02F4271
05CBD82
19A4226
069BF4E
01CBF8C
09CC125
1E4BE1D
0774229
02DFDAE
19D3E0A
19340ED
045BF19
1C6402D
0677E9D
0848161
1B1BD9F
1B8C1BC
192BFD5
1CDFE73
1EFBD82
0173FAE
1877DDD
08CC1D5
04AFE47
1A4C196
06A412A
1D58099
042C0B2
1F97EF0
0330018
17E3E76
18400D8
0047E15
1998218
030FFD3
07C01D9
18B427E
022C277
04FFE57
1998206
182C0BB
02AFED6
1D0FEAF
1C6BF3A

