0CBFEC2
1374224
1F2FD8B
0CE3D86
0A33E03
086818E
01FC1A1
037BE36
1EBC257
1A5FCFA
16AC08F
1FAFD9B
1FAFE01
1450218
0750278
0A1BFE5
01C3D3C
0B03E39
0C7C110
138C1B0
13F81EE
1DD7D27
05ABE2F
070FD39
14A82CB
1FB7F41
06902D1
04E4072
1BDBEAB
0583FE5
009C303
0CABDD5
0294063
02B803B
131BD1B
196007A
1CDBEFE
1B73EDB
1F87CEA
1B4FCE9
16EBFD6
006BD4C
132811E
054FD60
14CC095
165BDD5
1AE417D
1D1800D
1F6BE3F
12FC152
0A5FDB0
0167F33
14501D8
09CFEC1
15B018B
1CBBD58
14B3CFB
0A541A7
1B680E2
15AC288
156BF1D
07240CA
0B07E6E
1AF815E

