069028FEEFFBC3F47
030023C00401080B8
0180153F04FC07FC5
02FFD940A20233EE9
02E031FF350067F19
31F040FFC1FC880DC
0FAFF8804F045FF2C
0CBFD3FF85FD7804F
0F8FDFFEE2FE47F05
0A8FC1BF03FBD4090
3EC01AC05A019FF72
05BFB8C0FD043006A
03AFE6BF02FE64042
309FD1BF9DFB8C070
383FDEBF9502B3FEC
037FFF40B4008BF09
2FEFCDC0510190055
2EB041801801F806D
362FDEFF36FFD8028
3FCFE73F260177FE3
3DFFD83FA20410067
0000073F51021FF1A
2E003700D001880B7
3D902E4087008802E
2DFFBB00E3FBF40D0
385FF4403D02F8096
05C01100F7005BF8A
332FBC80F5FC0C0F6
33FFC87FF602F8121
0E301D40710197F07
35D033FF8EFD000DD
3AF044FF0E01D3EDD
3CAFFCC03A0373FDD
0B2032007E01A7F20
07A032007CFC4009B
355FD1C067FE5BF76
067FBC7FA3FBE0022
081FD7C10BFEF004B
122031800E038BEE3
3F8FB84108FB8FEE4
361FFEFF81FE83F5F
2E9FE6C00F0357FBB
0ABFCEC02803340A5
0180333FA50027F6E
300006BF2CFFE410F
31A00E7F66FD33EDB
07C02E7F44FB68075
34603E7F2303BBF37
03E01A3FD9FE5804B
3BDFD40030FC080C7
04EFE7BFF9FC700EE
078FC8BF280353EF2
0F4FFF00DBFF23FDF
38800640C7FFCBEF1
0E3FBE40820378005
0B001F7FC0FC9C0E3
04DFCB803003D7FE5
392FD37F1A0168069
355FF43F92029BEF7
2F8FD7FF79037FF2C
058039FFFD011BEE1
2F5FE13F660337F6A
125FB97F5C00B0082
00FFB880A2035007E
2DA013BF59FD53F77
08800180B1FCDC022
314011FF7604500A8
028FD57F150383F68
3ACFBA3FDF0470085
012FF540BB00BC036
3CBFD43F08018009C
3EDFE97F4BFF780C6
3F3FBB3F52FFBFFD1
3BEFC0FFC9013FEFF
3ACFC5BFDE02440A1
02BFBBC0D8FC240EF
09EFE77FFA0158021
320FE4FEFB00FC08C
3C8FC50093FD73FDE
03D02A80C500A4119
009FD200A1FCF40B6
2FB00F40BAFE87EDB
0270430103FD140A1
072FFB00700167F50
10400F401200780A5
0E802DBF71FE4BFB3
11E03F7F9500E7FE7
314FF23F9902CFF8A
019FEF40F10478067
3B3012BF4B040BF43
3BA019008903A00A5
3BBFF6C00EFF10065
039FC600C002CBEF7
04103F3FC8FBCC100
36901ABFCB03C00A2
3ACFCE406CFBEFF5C
0D9024FF8A0258064
0B6FE67F40FF380CE
3BC04740DA01B80EB
32A005C029043FF0C
361FF93FF801680C1
09DFB6FF300287F62
00603FBF24FDE7FE6
001FC5FFD7FBF7FAB
0D6FE3C0AC0333FBA
3F9042004EFD08101
0AD036FFAF0350105
0AA047BEF1002803C
2E1FD2FF7403D80AE
3FE02BFF25FF5BF35
37403EBEE9FDBBF81
392004801C00E00ED
384006FFB402800B0
3B903D404702DBF26
32102A00A2020BF6B
10A00D80910057F22
3D9FFD802F035BF8B
3D80257F3400DC0A3
3EE0054015FC1BF6F
3D7014FFE5FE87F32
2F1FBD3F0DFD6C0F7
0AC0433F53FDCC0E0
0E40303F82FC08050
11E0487F18008FF9A
021FE5BEF90384072
35102140BE00DFF07
3EDFF97F39FCF00C4
0C5FF0BFE7FE8000A
117FE600940234116
2F5FC7BFB200ABFC5
3AEFEF0028FE87FAB
12201A40EFFE6402A
10E03F3FC0FDC40D0
2D9FB780F1046BFDE
0C0FBF80DDFE0BF34
07D002C11E03C80F5
024017BFDD01F3F8E
03AFC3C04E00DFFC3
0B804680CBFFF7EF4
0EA02DC04300C3F1B
0A9FEC00B2FC54048
0E5FD280E9FFCFF03
3CA0108123025011B
32CFF7811AFE00070
031FF47F5FFD44025
0FEFBF0100FFA7FB8
3A7029C1260007FEC
04EFBF7F4BFF940FB
36203880EFFD00024
01402D809CFC6007A
3DDFCF00D400580EB
36EFB8BF11FCE00E8
3930470008FD4408C
09803A3EFC011C0C8
0B8046C01CFD27F9A
0D8041C0E1FBFBF69
3D7FD340FB015BFAE
3DB007405DFFABEEA
34401AFEF202E8017
0C7FC8FFF1FF93F40
0B20247FD4FC9BF29
361FBAFF36FBBBEF9
2FE0467FC9029C063
300028400DFCEFFA5
0A603C7F1A032FEFC
058FDDC01003240C2
008014C00BFD940C4
0F1FF33EFEFF83EF4
3A700800D8FC24103
2E6FE4405001BBEF4
00401A80710117FFB
0AFFF6C08501DBF41
09503FBFF70223F24
378002002A0387F7C
01FFFEFF7B01A3FFE
042FDF7EF4FE2C11E
080037FF7E0123F5B
055FCE4094FDE809E
351FD87FE401FBF11
03FFC8BF70046401D
06DFCE805E03DBFBD
3E8FFCBF0BFFD00DD
352FD93FAF02540AC
30C03741200468041
011FDC3F5100B403B
31BFF97F6AFC8C038
2F7024C0460114120
3A0010BF3B02A7F5F
344021FFEE01380C3
097031BEE300ABF9D
2EBFB87F500390096
08E01CBF860253EE9
0AEFEA3EE2FFE410C
3B3FC40055FC58087
3C2036FFF501BC02C
0AC020FF9AFF3FEEE
07A039BFCAFD3C0D4
1180313FAB00F7FDB
3FD0434108FCDBFCE
07801E0077FDBC099
399043809D007BF4D
3BA0268051FCF40E2
078FF7BFD40077F17
33BFE03F2A022FF98
327FB8011B02FBF14
3F6FBB0087FE48011
0FD00B40A3FC9C0BB
3D7032C0BB01E3FC1
3BC0013FA9003BF64
3F703CC087FBE0037
3AA0197F090403F31
029FB68048FBCFFD7
36AFF4C076029FFE5
35CFCD7F5F02BBFC2
0830293F8DFD38015
0B000B3FCF01EFFB5
0AE02EBEFBFD34001
02BFCB0071FCB3FA9
385FC33FCCFE7FFD1
02E03E4026FBC80D4
31DFFB3FA7FC8C103
37AFBFBFFC03FC0C9
3E3FBB4037025C0E4
1260328001FEF003D
0FAFC080DB002808F
0B4FB7FF66015BF04
12101FFFD50074101
32500EBEEFFC5C0A3
3C0FFAFEFDFED805E
04B011C10AFC8BFE7
39C0297F60FDDFFF3
10EFE07FA8038BFD6
02CFCE7EFDFE84056
047FB6809FFFBFF68
0B0FF87F55FBF402E
34A0267FBA0304050
11EFE0FF70FF3C013
3A702E3F95FD67FED
2DE0103F2FFEDC0C2
050042C06BFE7BF92
2F7FE5400FFB9404D
10D023BF9301B3F9E
06BFC0C0650317F0A
09BFBE009F048BEDE
344FE07F7F00ABFB1
10003EC08900B7FB3
3B3041C0820174068
0D0FFB00730227F3F
33A028FFAD00CFF82
3A8FE1FF81038803D
084FEF4001048BF14
0D6FCCBED902A3EEF
001FCF007EFCC0124
34904200F7FF100D6
341FB880A1FE10008
2EEFC5C0C1FBD40E4
1230044004FB64055
0F801A0053FEF4100
0A9018FF8AFF53FB0
357FE8C0D9FD2FF82
334FDCFEE3021BF63
3C20313F2D01F3FA0
074008BF5E0333FA0
3370037EF2FE9808C
04602740FFFBAFF0D
38100240F7FE4BF9D
2DF011411D03AFF0E
08E01CFFDFFE6C0EF
3A4FDF7FDE0448095
33C03F00B00134007
39FFCA010E02E00DB
085026BEF90274022
2E7036FFAA018C062
046003BF6AFF7807B
11E0403F55FFA8058
302FD8FF0A01C80E1
01E047FFADFCC006D
0EBFE2803E019FF04
341FF0810EFBB809B
05C035BFF9FDE3F16
064FD9808DFD8BF7D
3FF018BF39FF03FDE
102028C117031FFBA
306FC3C0ABFEFBEFC
379FF240CD04480B3
39F04280FF00DBF6D
2E5FE7FFC2FB97EDF
2E7042FF35FF9C01B
0A40227EED0237FD2
2F6FD43FF9FD4401A
04D014FEF9008BFB8
31DFB9002F01A00D9
336FCCC09C016FF53
34F01F404901D00CD
0B5FD3FF90001411E
3E403FBF0800F801C
3D7FF581130407F94
0940320067FC67F7E
3A0FE1C11D0368102
047FFABEDA003FF9E
0F4003011F00240D7
101FE3008102BBFB0
2F7FD97EE0FCCFEE1
0F1014FF6702040C0
341FC57EF9FDF4029
3DB02F3FC9FBAC0A1
083FE040C2FBEFFD7
0E90387FB9001FF0F
0C7FE83FF9FBF7F1D
0F4FF3412000B3FFD
00201B00A401EFF38
368FBF800E02C007C
3250063F66033BFB3
0ABFE47FDDFD3408D
3F5019C0CAFFE4100
3DEFE60055014BF11
054FDDFF49FCA3FEF
2F5FEA7FBA002803E
3CDFE9801000E4116
39A02C402500680FD
072008BFFF005402A
3A801EFF1C01DFF1C
3C6FEA3FF7FDD7F83
127FE73F1601640D1
0B50387F1DFD2BF2D
11E0124015FF6000F
3F6FD3BF0600DC0CC
2F0FE4BF36FBC80C9
0E40488011FC03F72
3DFFBCFFBBFD5FFD1
0C20057ED9FCE8096
3DBFE6FF66042C0BF
0BDFC37EDB03BFF30
3A7FBE3EE6FF280DD
2D9FE380B0FDFFF1B
3A600C7FCBFD30112
33BFF680DC00C7F93
321FC1BFC50473F6D
0BDFBB3F28FBBBFDC
005012BFD0FCF8047
3B5FEDFFFBFE00076
31C0193EE8FEB80C1
020FFFFEFC0000108
2F2FCD7F31FE4BF06
304FC4BF9AFC17F54
0B00153EE4FBB808A
35AFE2C04D0053FC3
0D001A808302B802D
0A5FB88100FF4C112
02900A7FDDFFC4046
0510493F9CFC5FF12
06AFDDC012FC70010
0EE00D405700AFFF0
3E803D0080FBA3F00
00C01E40740358082
101047BFDF02A7FD8
086040409A0117FC4
12201C3F09FEA7EEB
02900FC02602540C2
015030FEEEFE33EE7
2E6FCD3FA7FD0C0A8
381FD63FED03600E7
062044C039FE0BFC6
04B0187F3CFBF40E7
3EC017404BFC9C03D
0E9FBBFF910448070
10103D809A03CFF0C
10200B006BFF78040
3C3FB8404FFFCC08F
053042003D033BFDD
3BC0077EE003A80F1
0D500801120237F38
041008800CFE7BF95
3C10368060016FF9F
2F2FE50118FBABF69
38CFC7BF1C0234005
3B200B7FB103F410F
023FE77FC004900B1
335FE5FFBFFCEFFE7
10EFEFBFB40197F18
3B100F7FE100E802A
36D028C081047C0DF
04C02AC01503B4023
3610477F3C0023F80
07AFBEBF8A03C7F1C
395FEA3F28FD300CF
017035FF0A00DFFE8
127FF840480208068
070FBDFFBF01DC113
32C01E7F120483EFD
088FE97F9B011C0D1
391FC4C0FFFB8FEEC
0F704280790047F0D
350FD6BF71FFB806C
304FC38031FB67F0A
058FC2407B02D3FC4
310020C0BE007C048
0B9FEA80F8FC28045
0C5FE37FEF0167F37
0FF022FF5DFE4FF47
2E2FE37F1B036C017
30C0148040FED4085
32003C011E024BF08
352FE4005CFC33F29
0580163F6000B40BD
32DFC4BEDAFFBBF0C
0950124097007C0DD
325034FF70FD7BF79
09A03C4051005C026
3D50214020005C05C
0F1FBB0089FD83EF3
3E3FC54013FCA8044
0F8045FF95FECBF1A
07EFE93F59FBBFF39
3FD0327F09013C04A
02B00B410CFE000D6
0AD01E3EEAFD34120
383FDC7FD80223F3B
2F1FF9FF7F03E4001
3AE038C058FB8C01A
033FD67F96034001C
3F6FDEFF7FFC77FA1
2E0FB8FF1D04080B6
122034BF5DFDEFF67
105035FFAAFC98079
2F1FDC80A8FC37EEB
3470260021FF7FF81
100FDC3FC2FC37EF4
047FF7808A0480016
3ABFCD4037FD180C1
092008BFE501FFF81
043FFD000A0288074
049047FF36FC00073
3BC014011102EBF8A
323FE380B9FF98096
3E3FC47EEE025FF46
0EBFF67FF601FFFB6
07B0403F45019C09A
300FED803E0173F38
006016C0160120035
3D0FE0811D0134049
09A0277FC101D7F82
36A017FF2EFCA0012
0D103EC09BFC2BF9D
3CBFE7BF6403C0094
3E30278082010FFE9
3B30437F060357FC8
0A2006BEFB00D0126
0A402D807403BFF6A
0BF012401EFD1FFD7
3A30023F1EFEEFFB6
3C700EBFCD017811C
0D8FFD80DCFFE8025
2F502CFFF701FFEEF
0F4FF87F0B004BF62
3D7FCCC081003C0D0
041023BF9E03CC0E8
31203C7F440460026
3BAFDA400EFB9FFD2
114038409DFFD8036
026FDD7FC600E7F81
0C8000401001A7F6B
06F00DBF65042BFC1
36B00540AC01DBF40
0BDFC23FB0043FED9
083FDF40D9FED0102
350FF44043FF67FEF
089007FFF6FBD4063
077FDEBFADFBC3F05
0F10058100042004F
0B9FEE7FCD0463F0E
2D9FD93F28FE37F1D
31EFFB4096FF18030
0A5023C0B5FC17F52
077005BF56FC7BFF5
05A0203F09FE340CE
3D3FDC40D2FC0411B
33EFC9C0FD008FF6A
34C009BEFAFDDFEF4
0B4FEBFF3D0217FA9
0C70224047FD7FFE7
356FF900C10147EF9
3CA018FFA5016BFC6
0D90173FE6FC3BF20
316FCCFFD90247EF7
32300D00DBFFE3F8F
02F00F0107FB9BFDF
0B50053FA2FC640D2
023FB7C00AFE2BFB9
02EFFF4090FC04021
33901EBFCBFDBBF98
317FB700F0FD93F30
35503F7F2E0220067
3F9FD8FEE7FEF401F
334FF2BFE8FDA405E
0B302140E5FE6BEE3
358FDB7F6002B3F6C
32DFB6FFDAFC340F3
343033FFF7032FF8C
33700F011BFD50085
3DF00380980228077
03C0143F51045FFE3
3D701B4119FC97EF8
0170257F31FF240EE
3D6FD7406CFEABFED
00D021408AFC44103
00F0264124FFC7F95
0E6045FF3B035005C
2F9043BF5601E3F7F
32B026800F009C00D
30E0113F93FC8C05E
378FD24100FFC7FCD
02201CBF3EFDABF1F
3CE0137F97FD03FE9
310047C0E80128125
39D043C09E0264126
3E203F00D1FC43F38
3130334090FFEFF6D
0E7FE43FDCFFE809F
04EFEB7F76018BEFA
021FE4407901A7F5C
0A2FDAFF3003A3FFA
0F90267F3D00F4000
0AD0208029013C045
0E9002BF25FD3FF64
127028FF25FDC001C
3D3FD4410D03E3F17
0B8FFD7FE9FC0BFFD
2E7FD53FDFFD60099
30F038C0350457F19
06E0453EEB021FF7D
320FDCC02C0398080
009FB93F98FBEBF61
01AFFDC09B02EBEE4
0BBFF7BEE4FE3BF25
3E2FE23FD0FDC0019
0FFFCCFFFBFD27FF2
009FD3C0B90224114
3200227FB6046C0F9
3CC0133EF6FF54009
1100300042FCA4001
3CEFDFBFF900FBF08
0E3FE0BFE5FBBFF18
028FBAC0A3FD000D8
068046002001F3FF9
316FE37F1AFC14039
088FBF7F760413FB8
11CFC2FFFA007C08A
325031C0B6FE9C0D6
08EFF97F49FC08031
082FDBBF06046BF0C
3180067EF6034C0DD
04D02E80380148003
3AF02BC0CD02DBF62
3C9FD7FEFC020BFA5
367042FF97FE6C03A
3C20173F2200DC0AB
3F100FC081FF14089
3E002B405100FBFC8
0C403F40570043FA2
337FEA4104020002B
3D30103FB600CC009
3B6048BEF000A3FD0
35B001C0FDFE7C0DD
07C025006FFE87EF4
05CFC2804B02C00EE
049009C0DB01DFFEF
112FDA3F62030FEDB
0D50023FFA0298074
11C0054102FDAC0B8
3C203B8030FEE4069
309FE97F680123F37
00CFD5BF9BFEA402E
0F1FCCBFCFFB880FD
0C1FFFFFD3FC38076
03DFE280AFFDF4001
3D7009800F0423F02
3740180106FD7805B
100FCC3EF704340CE
11E002BF6402F3F07
01FFFB8051FDEBFB6
00DFF77F13047406D
3A1FC5FF5AFEAFF5C
39CFF640D70028049
3B4036FFBAFB8FEDB
324FFF3F02FDB7FD4
0850317F03FC24043
0F2FDA7EF201EFF64
100FDF4079FF880F6
365FFB3F01FE13FBE
11100ABF5D017FFAD
2E7FFF3FFEFD1FFEC
3A301E0085FE13F96
32A020BF64025FFFA
3B3FB9FF5601E00ED
07FFFE40050173FD8
0D703D3F37028805A
342FDAC119FD67F43
3B6027FFADFF8408B
00E01F409AFC080F1
01A032BFEFFEFC0A9
355FF2408B00D4048
3090057F1A03300C4
09A01D7F3D03600BA
119FCB40D9FF27F83
35102A7FE0FFFFF98
319FC53F180087F20
00202BFEF2031BFE9
3DAFC4C0C202D0022
03F03EFFCB017C04F
0D3FDC01000030055
11AFCA4042FED7F11
11B044FFF6FEBC017
096FE340D3FE57F12
0C50433F8B010401A
2ED00B7F3EFC77FC9
3ACFDFC0C701AFF5E
379FC2005FFC4C0E2
1210353EF6028FF5C
3FB019C01DFC3FF9B
0CC02BC0FB030FFC7
31EFC6BFC2FBB8070
352FE3BFF7FC3404D
3FDFD4C05901DC0D3
349FF1000C02AFF47
0A6FD1C0AD00A7F65
0C7FC7BF9801D8010
31602D006E006FFEB
0E000A3FFCFE68096
315FFE7F7CFC9FFC2
09B01CBF86031BF45
0D601280A203EFFDD
00601B4059FE2C079
3D30253FD9FCE4115
077FC63FA9025FF3D
3440353F8FFF33F38
302FF00058FF1BFDA
11A0457F7701F80FA
026FDE7F2F0020010
014FFC3F1BFC23FC0
09AFB7C02C0247FF9
120FE77FE6FDC80AB
3C3FE6BF24FD73EE1
3D7FCF0110FCD3FF6
32DFE7FF72FEB7F85
39F02E7EE8FF4000B
2FF012BF0C025FEE3
0B50267F18FF88026
07DFFB3F7BFB8BF83
3DC01D8013FD2FF78
351023C05101F0033
3CB00A8088049009E
302FD3811F0143FD2
00CFED405BFDABF98
39A022810A01FFF0F
2DE042411CFF13FE3
2E3FF4800AFDDBF73
36702CC094026FEE4
067043BF1CFDFBFF7
349FC47FB1FE0806C
3DA0097F6E0263FFA
03BFE34055047BF79
2EFFE47F23FF5BEFA
316020FFFAFCF404A
0D2016BF4F0113FA5
125028FF69022FF28
081FC17FF3043BFAE
010FDF808BFD380CA
048FE2803602F005B
058FFD000601AFF5B
35DFC5BF6BFEC3F2B
3BE048403C01A3FE5
0FE0357F34FDCC0D8
3FEFC63F2AFCD8018
009002BFC5FDB005A
307047BF77022C0F7
2DC035FF9BFB9803E
11AFDA7F1B01B3FD7
31DFC17F5BFEB80C4
050036BEDF0327F3F
387016C035FDDFEEA
06EFBA7FCFFFEFFAA
30A0227F22FBA7EF9
092FF33F290037F06
0FBFE8C011007BEE0
329FDEBF5EFF0408A
124FE93FC400FFFD6
391FE97F4F00680CD
0300280000FB80020
0C2FE581270180049
2F80303F160473EF3
378FF040A2FEB7F57
3B5022810F012FFB7
3CD045BFC6FC84004
33BFC53F3402DC044
11C0148115028C086
3BA03A7FF001C3FB6
363FBFFFD00413FB0
32EFCF7EEC01D010E
3DC00200CDFEBBF35
3F1FEEC0760020029
348FF4BF85006BF5F
036036FF84013FF36
35A01D0112041C040
0F103AC0C0FBF0115
3A8042C011006FF8F
087FD5C041004C020
0EAFF80127FD13FA1
125FBD3F470453F2F
3FA00D8070FE08115
08FFD78000FEEBFC0
03500F4095FE8FF34
36E041FF28FF98090
11FFB780C8FE38096
31CFDDC047FD0008F
2F103E00AC0193FAA
3A5FE380E400D7FD2
0C1FBCFF7202300E6
01BFC70039FFF7FDA
3B9FD1C054FE7FF0C
0070093F4301A8009
025022C0BB020BFDE
07901AFFE102CC012
3B900400EB03600BC
380043809CFEDBF8C
35703D7FABFD1BF3B
33A00A004F0037F7A
100025BFCC011BF87
105FD8BF6AFE70011
020FDD00C402D8118
0050343F98FC500D4
0A7FD6BF4202FFF7A
3840497FA5FB640DF
122048BEEDFE23FE2
3340013F0CFD940D0
05901E7FFEFEC802B
30900E80CE016C11F
02703C00E50363FC3
05CFC000ED0467F67
063FBA7F07FCB411F
07803CC03FFCD3F42
3D0FFE3F67FF480FA
396FCD80D1FC4C027
3EDFBFC0C3FC0007F
329FD7C007037BF42
101FCB411A03B8113
117000803A0123FED
3C803CFF13FD73EE5
0E9014C0F4FC73FDF
08B01F7F70FCDFFC8
31FFC8C08603EBFE0
31A00F3F03FF28056
0BDFDABF9903F006A
118FF9C06AFFC3FB5
068014BF1202D7F02
343FC83FE202080EB
0E8035BEDEFFF3FAA
38F041FFA7FBF0028
2F100FBFC6FCAFFA2
338FC73F73035BF5A
058035FFE9FD6810D
039032BFEDFD03F8A
34DFD4BFE20147F1F
011FD37FEAFCA8075
0E7FE87F0C0237FF6
047FBA7F140110038
34E00EC0F2028C0DF
2FBFE5009302CC0A9
0FE02EFFD2FF2FFE2
12401BBF870134047
0C8FB7FF7D002C0C4
3AE0444100FE080EB
34A01DFF2E03180F5
065FF97FC5FF28038
33DFBC3FCFFF47FB6
36E02E7FB8FE90089
2FE000C09C00640EF
0320474085038C122
3F6015FEEE0263FC8
3D2040FF0101E0088
00DFB73FD3FF73F89
2FFFC0C05DFE6FF0E
0E3FE380C6047C04F
2DF01C000B019BF04
0B301A3F9C017C015
0C2023FEF8FC5C0B1
056FD0001AFF6000C
01DFE6BFA1013BF61
3BBFDCC02AFE87F31
110FDAC06202A7F5B
3C20133FF2FFD7F12
328FFDFF53001402B
2EF0410000FE4FFE0
3DFFC17FF2009BF97
35B0397FEEFD5BF9B
093FF68020FE1FF1F
34603DBF7CFC300E8
087018BFE8FC13FD3
121FB93F29FC640DB
3F9FB6C0D000A00D8
040FBD00EB0073F57
0850337FDAFFE7FFE
3A603240AB01CBFFC
06303FBEE400ABEED
30F038FFC00480070
38DFF83F5C0044042
361035401FFF2C10A
3BD00200A0FE440E5
37303A8009FFE4083
02B042C0A3048003C
34F0173EF301380FA
3AFFD8FF88FD77F5F
3400003F5AFEB3FF1
024FD6FF73039FFF5
08AFD97F53044007D
0CC0377FB2FF13F0D
012FCD7F9D0424082
056024C000FD5BFA4
08BFCB7F6BFD400FB
02EFD7C0E8FE9FF3A
046FB67F6EFC33F2D
032FFF7EEAFE4411A
3340443FAC038FF54
37D02440D9FBA4009
3A7FF87F6903EC114
36E026BEE202CC002
08C00C80760167EF3
3B8FC0BF650337FE3
35B018805E02FC0ED
00802C403E041C00D
04902900E200EFF38
00A0264003032C049
01801F408803CC0A4
0330063F0F02240B6
00F031000DFBFC08C
3680267F3103980EB
2F9009C012FF380BE
30AFC44117000C10B
102FCF3F91FDABFE8
3E101ABF86FBF3FAA
379FF47FB2FB74049
094FC0806B019FF00
0BB00D7F2E0107ED9
07BFF2804A007008E
0530277EE90013F4A
304FDDC0D60280120
07AFF240600440095
33D03540B50030017
11FFBB0051030BFF6
342FD1C05D00B0098
3F5FCC7F34FB74081
2D9048C04C0200046
0FBFC7FFDB01380AD
3BB02CFF63FC17FE6
070FC34005FE8FFA0
3DFFEAC0A7FC1FFDE
003021BFF4FEA409E
2F2FEEC035039C0C4
3610190021049C0BC
016FDA3F99008FFE3
0750363EE9FB7BF25
38BFF3405400ABFB1
03601B3F59035C095
0100328085FCA00E0
377FCCC0C6FE940EA
396FC67FDBFD7FEFA
115FD2411104180E6
062FEDC086014FF0D
31FFDC0036FC100B2
2F6FB900EDFF43F65
3B3FEC40AE00D008B
0D701EBFBC02D4125
382FE1FFE8002C09E
053FE480A0028C037
093FC47F2BFCD7FBA
0D3004BF83FE6C108
3A70208040FEB7FB7
0C003DFFEC0367F67
01AFD83F6EFED7F86
3C4FB67F2BFDD3F1E
01801B00D5FBC7FE7
04603F7FE30188119
3D7FF9BF9C00BC075
0C901F8046FCF40D3
06EFBA40DF0463F0E
019FE8BF84FD80106
0ADFCAC0E1025BF63
00DFFD802B035C016
124FBC808FFD84004
0B0013BF00FE08033
3CEFF4BF83FF93FB6
0ACFEC3F1AFD04010
3CCFC940240397F78
3CE0457F1EFC50117
2EA0297EF20298111
0E90200094FCE4077
3B1FECFF5601DC0A1
302FBF000FFEB7FAC
32C047809B0098068
2ED03CC052FCE80D3
0BCFE1FF290443F08
3DFFC33FB9FD18056
10000FFFC8FFA8028
0C3FC000D5FF17FAC
3CB01F7F79FFB3F51
39FFEF80990193F78
351FCEBEF1FBF00E5
0CCFBC7FDB0303FA3
3D2FE4409902480F7
076FC8BEEE02C80CF
2E7FBABF8202F7F8E
0990447F06FB6C05C
0E3FB8402AFD1C01C
33BFE8408BFDBBEE8
361FEFC0D602D3FCE
2FDFE8FFD302DBFDB
348FDA3FFEFCB7F3E
101FBFFF82FD0FF09
3B500F401FFBC3EFD
372FD37FB5FCCC0D5
2E30377F86FFD8040
02B0267EE00217F3B
31DFE440B50464067
061048BF2403DBF40
017036403C014BF84
04E041BFC800EFF7D
0100294010FFE3F5E
339FBD809CFD17FDA
3C3FFD3F820153F33
3BE02B805501D405E
01800D7EEDFD33F29
31A02FC091FD13EF1
33C02E806302280F9
009FFAC0D1008C042
3EC038C00A044BFE9
0A9FBC7F2E007FF3A
39AFF2BEDF045FFB8
01C016BEFBFC840E7
332028FFF1035C0B3
045FB67F15FDC00D6
106FD6FF5AFDD80C0
2FDFF7C01EFCD007B
075FD88117041BFD4
340011BF58FB8405C
2EBFEBC07D0237FBB
38800A7F55FCE0006
0C6FDC80B003180D4
393FF2BFCFFFE40FB
0BDFDC0127FE57F09
3B3FD8FFCFFE440EE
0EB03000A9FBF0071
3F7FBA40F1FEDFF6E
06A027C0CC0367FBE
3AF036BEE40467FA0
0D3047BFE3FD07F42
0CD036011BFFEFFEB
33CFDA3F3201EBEEC
2F4026C051002BF34
2DF001403600380D9
079011802BFF4BF39
36C001C022011C0EB
30DFDFC0730193FD0
3B10420003FEA0030
105005001301600A4
3D2FF680F4FBE7FBF
2E40487F64043FFDE
0C600DFF14FD380D7
2ECFCCBF7A00D3F36
3520363F68FC6C115
373FB8FEFAFD2FEFC
007039C06FFD94059
0FA032BFADFB8FFD6
0CBFBFFFB0FBE405E
3E2027C00EFB980D0
3530178092000FEEC
3F0FEC80ADFBCFEF1
076FEFBFC1013BFF4
0B4FD67F63FF4BF37
0E9FF67F34FB97EE6
3F4FDD80EB046FEDE
3FEFE240A0007811C
36C045FFB1038000C
0430153FA301A3F33
026FDE80C7FC08101
0AFFC53F75046FEEB
03003E411A0030034
3C6FF87F50FC4804F
333FE9BEE80338126
03C0017FE2FE37F2D
3D3049801B0023FD5
068FF34122FF300CE
07200B805FFE1C0C6
10CFF4BFBCFEB4049
3360057F40038C0AC
394025BFDB00C4083
30502C806AFCFC008
3320227FABFB9BFF6
041FEB410DFD3C087
314008C00BFF4FEE4
3D4002C10CFBE804A
11202E3F17FF8FF8F
0C3FD03F4100D3FDC
2EBFE70027FEF0093
0AC0417F98FEEFFCF
05D02D3F9D025C0DB
084025FEF6FC1C0C6
10603540B9FFC00F6
3A7017808902AFF03
303FCFC077044C0CF
0C8FDF8070FBA3F12
2EB049011AFD180F5
053FF43FCA028FFC6
11F04400E101D4090
3E3005BF87045BFA3
2DF01F7FE0032804A
38FFC680ACFBABFAB
08A0207F1A031BF51
0F5FE1C12501E3FAD
352FF17FD2004C084
0E60337F8F01BBF6F
0000388011FE5C040
329FE840E7FD27F12
115FC47FB10018061
0A7FC9FF3FFBFFF1D
34C02A401101040F1
0F7FC37FC801940ED
02102640D2FBFBF0B
31703000B7FB64064
00B01C4116FB7403E
39CFF37EE1FFF011F
11E03A0062FE33FF2
38602A4041FDCFFC4
11CFEFBF82FB8FF59
0FAFFB808CFE44054
31502100B60147F6B
08CFF40053FF9FF10
377FFB0041FCA00C2
0920337F9201C4119
06E01C402B01C00FE
346FF080FE00540E7
0740467EF30037FA4
2FA025C101FFD3F61
3D0FC6005C02EBF95
1040244103FD640A1
0EE04300BFFF3BFF6
0A70117F3C0047F18
3D8045006AFE9FF90
37503CC0FBFF200D3
05601F40EC0183EDF
0FBFD77F96FCC8052
0A70183F84035407B
088FBE3FA800A7F22
3DE01A40CDFDBFF02
0FCFBB001DFF67FDA
3360493F40FF38121
36BFFD8127FCC7FEF
38AFD4C0B9FF640D2
3C9FE24061FD7010F
049FC80081FFE4058
0D7FC23EFFFBE4104
359FCB3EF2FC840A2
0DD0197F3502E0110
2E5026BF94FD000DF
03402DBFE80283F47
3BFFD680C30184083
391FC7BFFD0293F3D
3380274023FFCBEFC
0B50123EE700B8000
11F00FFF9DFE6C05A
0F204580BA0153FC8
392FC27F29FE2C107
108FDC401A0138104
115FC77FFDFD4C002
3E0FE23F1401C006B
3FAFD880980483FFD
08E00D807CFCC7F64
3310197F870200020
350FC87F4FFC9BF5D
33703BC05B0207F90
3A6FF2807AFBD3F22
0E9FE5FFAA0160077
020FE8404D03840DF
04EFBFC098003BF48
312047BF4600DC11A
04501F402F013FF17
3400468082FFE4011
0310143F33FBA8111
067FF0805BFC23F45
0FF0207EF903C40E3
34803ABF1202940A0
0BDFBEBEDE03F7FC3
33701F3F36FDA8040
00200D8009FC47EE6
33C04980FE0480056
05A0053FDEFEDC11A
3C6FCEFF72FC63F3E
343FBB004BFD93F85
113FC27FC6FE9FF30
04A038BF350147F08
3F800D001C00DC0A0
342FEE80F9FE53F3D
304FE40063FFABF0D
37C032BFBD036FF12
0230253EEEFDB3F62
124FED0020FC5FFDE
0B700E80E80057EF8
2F604740DB0213FB5
014035C08EFF840F4
031FC6C07B00F7FF3
014FD4800AFE07EE9
31000C3F3802A404F
0DDFBA80C300940F1
0A4FDABFE802A3FB1
337FF5404D03540D6
0C9030C0AE00E7F63
06F0093FAB03480A2
395038C0AFFCC410C
37901F4041FB68059
3A901B7EDC0184062
01700F80C9FCB7EF7
390037FFC5FC27F68
3DFFDA7FC80323EE1
36DFEA3FEA0267FA0
2EB018FF360228040
0DE03ABEF0FFFFF12
0C102E41170384098
059FF4FEE502AFFEE
30F009410CFFDFEF3
0D801340CAFE88102
311036809AFC57FF5
003FBC80E7016BFE4
3BFFB73F8EFB83F0D
3ED02C40A90494016
08FFD98126FCA3F8F
39E0108097FCDBFE4
3720070111040C0AB
00FFCDBF7F02580DD
0C702B3F6E03B404F
03BFC67FD00050084
0A3FEB3FC30163EDD
2DD02BFEEAFFE80AD
0EF0220017FCAC120
31BFFB4100FE77FAE
05CFCF405C024C11E
3830433F990048049
0D2FE38082014C072
0B001D802401A3F28
31C041FFAFFD9808B
06901540D9FC5BF31
30AFE980E8FF04048
302FD280CCFC8001E
009FFF8102018FEDC
3C6FD8FFEC02F80C4
3EBFBFBF7B0417F74
112034408A004FFAE
0BB032C076002001F
028FBA002501F3F81
36AFF98095FC0FFD5
3F0FC10053FC5FFFD
038FEF3F01032C06E
0EC029FF5403DC03A
334FF940DC0177FCA
33CFCCFF810294033
0B500AC0A1FF2C043
325FEFFFD5037C04C
0F1003BFC4028C099
05B0314030033BFE7
08903C006601E7FC3
35902C7F49FE2FFFE
0ACFB800FFFCCFF1D
0C00273F8400A807C
2FB044C015040FFCC
0F9FB6807C02E80E9
0A0FF47FDD0423FF8
0CE02BFF2F00CBFCC
36200B3F64031BF10
0B0FF480C0FF24094
030FFD7F640094048
0E0029C0C9FB67FAA
0D000A3EEBFDE3FAA
0B0031BF19FB8407C
0CC0280100020BFC1
3D00323F410193F0C
34700080EA001FFA9
31303640E3041BEEF
032FDC807D0407FB7
06C0148060FEA7F55
08E0187FC0012C09D
38700140E8FBF3FF7
0FF0193EEFFDB8002
382010409A031FF6F
3E5008C094FD33FD1
03D0244001FE7C046
05BFC80062FB97F24
39F039400AFF880EC
076FC53F79FCB7FDB
37102FC113FD53FDD
11E04380A003E40FB
09602E3F1D0303EFE
05A03681050323FED
036FFC00FBFDD8013
2E102AFF5D046FF0E
0A4003C091FF7FEEF
0D502780B5FC80038
01BFC43FF8024809B
004049802BFFDBFD2
32EFF07F85FC3BF61
01C03F0039FB88024
3C0FF43EF1FD0C061
3D9FD8BF57FE9FFFE
377FF63EF1FFE3F83
03FFC1C10103AFF91
056FBBFF44FFABFA2
381001BF02FE7C080
06D0423F9301FBFD5
3ABFD1C0C200F7F5F
3D6FCD000103340C6
34702EBFC0FD48004
05F02A800BFE3C005
342FCA801CFE37FAC
39501C808F0313F1D
3FF044BF5E02600D0
04E005C05CFBD3F00
3160374101FDE7FC7
0F5FDB8024FC90016
3ADFD2805BFECC0CD
024027FF28FE2FF29
02FFEF7FE0FFB8026
05DFDF00F9FE9FF97
1080218063FD17EE1
0F7FC5C089014C025
0DCFC7806A0480042
0870258038FFE3F3C
3D0FE87F63FB87F10
03E028FF0EFF53FEA
0B3FFBFEF900E00B2
3DEFB70089FF87F41
047041C0A9FC3BFEC
0D7FF9FFC701F40EC
3AC042810CFD1C04F
3EB003BF55FE73EEC
110025BF1FFDF7FF6
2EC014401904380DA
341010C0AFFCEC081
380FBBC040012FEDB
383045402D0160124
098008FF6303CBFE5
0D4FC07FED02E4003
387014FF1F02A4008
085FEB40A8FBF0087
03BFE4C0ACFEB801A
0F1FD64119004C031
31502800F002180BD
327FDC409CFFDC0B7
0720444044FCBC012
091010C0E4019C01E
2FB03B4085FDC3FBA
3E100FFFBFFBDBF30
2F1034C063017BF78
3F6FD7C0DB00D0102
1000040007018C0AB
2EDFD6FFE8037BF53
356FFD7F27034BFC6
02FFC040A8FF23F4C
3FF0008097048C101
09F049C035FC6BF89
0C5FCABF93FFF3EE9
3E20378077025BF70
3980497F74FC77F73
102FBCC051FF0FF2C
07D0403F36FFB7FBC
0D1FF8BF8903680B5
0B1FBDFFFBFC33F15
353014C04702A4025
048FD640CD027811E
0E7FF50092027BFB5
2F9FFD3EEC00300F7
11E01D40AEFC9BEEC
0FB03C00E5FDFFF14
374049BF09FEEC122
371FD5C05FFBEC0E2
074048FF07014C108
3E100C001202BC046
003012801A02E3F90
362FD17FE7FD64012
331FFABFD90490087
0E6FECC0B900B8055
35104340F8FED3F51
0E703B80F5FB8FF92
32EFD3C0AD024BFE9
2EBFC0BF6FFC17FA8
37402C3EE8FD7BFD9
05EFE5C03DFE8FF2B
04DFF7BF97FC5008C
0DA011FFC800B40ED
08F036007703240AF
3BBFD97EDFFB77FB2
30600B801E049BFE3
33301D0095021C07C
076FEE401701FBFE6
349FF07F41009BFA5
3D2FFE3F220017FA9
3F403E7FAEFDE4000
083FBF810F00CFFCD
04FFF540620388080
34800B3F530363F30
027FBD3F5EFF5FF0D
09A01A3F370190053
37BFD08100FC8C063
3AC019807B001C0B1
3AAFE3BFA1FB9009E
3C4FEF802FFD5C11B
324005BF56FFC8034
063FCC0075FFAFF17
051FD33FF8FD5002B
390FF700A60363EFA
06B03BBEF30044078
058FF63F71041FEFE
31C02E80CEFF6C0FB
026FE97FC701BBF26
370FEBFF4E00340F5
31402E4091038BF5B
36CFEFBF47FD1C052
304010BF60FDD804D
32AFFEFFDD03600A0
106FBDBFB90000094
018FDF3FB0004BF11
02700F3EF5FC1FEE0
3F1FBB006BFE0BF33
0ABFDC00210458074
2F3FB84077FE3FEFC
0F0FD6002F01A0020
2E1FC5808BFF500F3
300FD9C078FEEBFA6
31E036BF4E02500DA
3D100EFF7AFDEC05B
3C00313EDA02C8005
100FC13F8601D7F50
39BFC840E6FD8FFFE
038FDB80470233FF7
083FEE3F47FBC7F92
3EB014FFE1FE93F4A
0EB00C3F8BFED400A
127FE300A0FBABEF6
08B001C03CFF1BFCA
3D0FCE7FBF038FF8A
086020402C0050030
09803BBF3CFEF3F99
03301C004C0427F0B
111FE3BFBA02AC08A
367047FFE5FEB7F81
0CAFB6C05C012BF2D
03A01CFEFF035C06B
013FF4C0CEFEF0085
338005FF9AFF3C0F8
0E00023EE602C4020
3920240107034FF62
3D5007BEE0FB68068
371FBF7FC70447FBD
033FBF803D03380B3
0E2FD0004CFB90060
0FEFE4402E03BFFC9
00100900DF00F7F61
0E403FBF4BFD6BFD0
385FEDC10D001FFC6
04B02B00FBFC93EE4
3D8FD73F1F029411A
0F5FD53F1A01F40D5
0EFFC57FB100B7F83
0200243FC9FBE4027
386FC9C01F02CBF6B
2E6FD480750307FD2
0710320031FC4BF15
324FBE805AFDA8100
355038BEDB0430124
06CFB640BEFDEC073
05EFCCFEFB0284092
0ACFF4BF6600BC0B2
043FC13F63FDE8030
02E029FFD601580C6
3EC0377EF802E4032
303007410102AFF70
3B4FC0010402C405F
37EFEF7F67FBFFFAB
39D03ABF8AFC0FF17
097FFD00BC011BF2E
063023C042FD380A2
3A5FBE802A048BF72
3930053F3F026C042
35AFDBC06E0313F3F
0280143F77FFEFF70
0EBFE1BEFB033C00A
00BFD1410BFD20016
343020810EFC540BA
042FC77EF300F008D
0A701840CCFC2BF04
001FE140570468070
3F9FC0FF67FB78082
098FED80C5032FEFD
08A03CC028FD33FF2
090FEB0037FED3FA3
3E501D006FFE4C02B
0CFFE40082040C0A4
117021C055FEE4078
0110433FA700E3F05
0C903DFF6902CBF47
312030808DFD83FE5
30AFE80117FCC003F
3FA04940B70213FA9
31DFB940B8FE600C8
0E8045FF1AFFBBFB5
11800AC0DAFEE0094
3A0FD7011AFD840E5
3AC00D7FC8FEA011F
03BFC0C01B0478085
3D80273FFBFDDFF13
0BDFDB0075FD17F19
0DBFE9C0D0FC5BF78
3C300280480278020
3F3FE7C0A402740F4
3DBFEA40220018006
36300AFEF8FE0C0C9
024FEBBF5101D0045
31A0254006FFC7F22
1120217EDF03480C4
32E0323FADFE93EDE
035004BF300203F3D
3D7FF4FF74038C07F
347FDD80A4FE47F7C
0FBFFFBF6FFBF403E
3D2FE13EE9FEB3FB1
0730077F88006BEE8
2DAFD77F34FCDBFC6
368020FF12FF8FEE3
025FDC40E0FBFFFFE
36D0363FD40003F56
11EFCCC103FDB80E6
03302A00E1FEE403B
338FC03F900207F6E
39D0247F4CFE0002A
2F40323F750074114
3B900D4128FE94091
0A103F3EE1FCDBFC7
3E7FB8411CFDB3F82
0A8003C0A2FEB7FB5
35E013C11D018FFF9
385049FF0DFFFFF1B
06202CC00603DFEF2
3B6FD240E8FF57F55
3F901A7F5CFF13F5C
082FB9802AFCCC0E4
37E0128008FB77F8B
35100C3F55FFB010B
3990107FD40497F57
3B7FFE0078FBD40F0
3E70443FEF0133FC3
0E4FFBC09704080DE
30900EBF0801180E3
0550318000FBC3FD0
345FB67F9FFF3BF77
359005405D00A7F2D
36C02B40460430051
118FFF80FBFD6006F
00102BFF8F032801D
304FF43F7CFB7C104
3630183F4602B4054
10DFE53F6C01AC062
09EFE53FF60190004
3AF03B3F3FFF90101
01B0140090FFDBF31
008FD680A0FEEBFB8
02403BBEE2FDFBFA8
32B01F7FC0FB8C0CD
0F1FFA811E02A3F2D
056FDCC0F5FF93F9B
108011BF99038BFF8
328FBB40600428038
045FE100BFFD23FAD
37DFC540BC033FFA9
06DFE1810003C40EB
3C9FE3BFB0FFF40F3
01B01DBF71FEC0050
2DFFF1BF2EFF0FF7D
306FDA406E019404A
090FF7FFA002DC0AF
07300180EC011006E
033FEB3F1EFFFBF4A
3D7FC33FD60394116
0BE012FFE1FE9FEF7
036FBB000402CC0A9
3E1FFBBFEFFE8C0DC
3BB008FF1BFC540E8
04700100280084076
044FC47FACFF17F38
389038BF25FC800AC
382FD93F53FEF411C
120FEFC11300580A6
03B02C7FA302340C8
37803F8067FD9FF39
049044006B0347FB3
2D8FF38021FE73FBF
01F015C040FB680D6
116FC87FDCFE980EF
3250297EE5FF93FFA
0A0043FFEFFF240F6
0E4FF1BF9101100F3
31E0163F8A016BF91
0FFFFFBFBD0430053
017FF5FFCA03FBFEF
312FE8BF69017C091
09E041BFADFEF3FF4
0F9FFFFF100413FEC
0200133F82014FEDB
3B1FEABFC4FE3008C
01EFDFC0A5021BFEB
0DFFC8003401BFFA7
07E0368058FB94094
37D030011301ABFD7
3E1FCEFF7401D7F59
0F500C0092FECBF02
3D900980F5FB83F2D
06FFD18027FEE3F28
3E8FBD0010FEF00DC
107034C08501EFF35
396FDA3F90FD0BF1B
07FFF5BEE80003F89
10202B403AFF68096
3C600D3EE0FFD4063
37F033C0D601200D9
08DFCFBFEDFD1400F
11A017004CFEABF6B
0CBFFBBF8A01FBFD9
044FCD00A8042C0D5
32CFB6FEECFF68070
10C0337F70FC43F7C
10BFEAFEF3FE67FAA
06AFE70018FFDC10D
00F018BF02FE30001
0490447F9200DC0A0
346FE3C01901F3EE3
2F0FCC0125035BF2E
35E02C0123FF20027
2F90228062000BFF6
047FBC3F070497FFE
35AFEB3F77FD3FFFA
3FD0068010FD8FFE3
3D90363F9300F8089
314FE0FF600307F26
31DFFD803FFE3FFF9
0E0FF8BFCB0167EF8
3F0040C00B0027F36
0DF00B7F0E00280CD
3B8FDC3F2EFCC3F0A
30AFEE00C0FFABEE1
32301CBFC9FFCBF1D
01DFC78060FED4001
3C5025BEDBFFEFF5D
32DFEC7F0E00F3F8A
3200473FD7046001C
0B80007FF6FE200EB
002FECC03501E3EE2
05BFE68031FF1BF1B
31504480E5035BF65
11CFF87FD1FF14000
3F702B3F02FCF809E
050FEB402102540E6
048014BFD003C3FE1
3C501580E00467F94
37A0323F62FE27FA6
0E3FE4401AFDA008C
062FF1FF69FDDBEEA
3810498033FC47FA2
2F400480340237FD9
3E5FDA3F4D0298022
3B800D7F82005FF8E
3C6FC34049033FF76
3D8FF43F03024BFC6
0AD0223F24FD50012
33103F7EFB044C101
34500FBFCC047BF78
36601300BB00F4071
39E0377F54FC94108
03BFF38056046FF3F
2E8FCA00120117F87
31EFDF3F800438061
365FBE7FE9FF8BFC2
02AFD3C0DDFC6FEF4
0FF044FF3D007411C
328FE4BFA303EFF00
3B902EFFBFFC63FD7
0D4005FF8CFF0FFF7
02C00240FCFBDBFCB
2F8FFAC11B02880EE
38EFF47FBCFBDC0CE
023FFFFF12FC9809E
009FBB8102FE94125
08A01B0022FE9BF71
33CFF8BF3900CBFE0
085019BF8A035BF11
106FFD4063024BFA1
30E03E3F36FBDC03D
01AFE440A6FBB00DF
2DE0154022FE100A2
38200D8077FBCFF9D
349016801EFFDC07B
3B0019000DFD0802D
0DCFEC010F007BFFA
0AEFC73F80FF23F3A
38F01ABFDAFD2FF24
03C00B3F00FE60067
34DFEAC0EEFFD004C
3D20477ED9FD7BF2B
3FF02E7F5701B00E0
096FF5C08D0417EFD
3A1006006502FBF36
3230073F5CFB9FF5D
09E03E411BFBC00A9
3CD00600210380127
0FE008FFF200A40F7
02CFC4C0E1FD77FEE
2EFFE300CBFB93F3D
3A301C80F5FD9004A
395FDBBF11FCB8086
00403EFFE9022FF3F
393FEE7FF5025BFF3
0A900F00DC01FC10F
314FFAC092FE53FE1
2F3FF2404CFFEBF30
0D80473FECFF23FED
03BFD60122FD97FD8
3D30467F690410114
099FB64038FC500A6
0D6FFF3EEBFF93FBB
107FB83FB1000401C
31EFE77F370488046
11CFD340C4FFC00E4
064FD3BF2C03D00A8
340FD97FD50170001
2FFFCF804CFEE4051
3E602AC0E5FF100AC
327FC1C00F03EFF7B
3A5000805EFCC409F
38AFEF80E0FC940F3
30AFBA8094FD0C0AF
07FFCA80A8FD8BFED
3DFFD5FEE3011FFD3
028012404E00080D8
3EE03E800102340C0
2EBFC64103FF27F5A
0CBFEEC0860133F38
39B049011C03D3F0F
39603F8089006BF0C
1050497FF702A0096
362FF3BF08033BF20
32AFCE4033047C0E8
328FF2BF52FDD3FE0
2E6FD7BF32FD63F27
318049C031FE9011B
383FF63F7F01600FC
3F1000FF50FCE3F66
02E02700B0024FF1B
36A022FFD000A4084
00E03B7F6002FFF20
31E0244066FFF3FBF
365010FF2AFCB80FF
02B01500C1FFA0084
2EBFC840F6FCC3FFD
003FEA7FF90078050
330FDE3F8C038C043
3C5FE37F28021BF13
355FC2BF93FC28119
3D803000810183FE8
042FDD4094FDB0053
0C7FC40092037BFAC
03400740EFFB83EE3
07C0140048FE2011B
062FE5FF13FC88077
339027BEF001B7F6F
090FDC403600380E8
0CD0317FD501DBFD2
3F200A402501DFF3D
3A2FCB7EEE001C01A
0E2002FF9C0188021
3D7FDCC0C7FB74083
34DFCD012803FBFF7
010FEA40D1FFA3F0B
0CC0280123FEC4127
0EEFFA407CFC50030
3C7FCC812303AC0AE
3A1FF6BF1103FBF50
1190273F4D001FF60
0C9FD9009A047FF9E
3CCFBDFFDB02F7F2B
2FA0403F9302E805C
2DB0033FE204280D9
09F0413F410307F1C
3D8FC4405F048C045
36501F3FB2FDF3F17
0D6FDF009D001C0B7
3E100180C8042000E
04700241070057F9F
3F00363F0C008C10F
0F9038BFA300B80AA
31002D3FB303C3FB6
3F2032FF2100A80D8
03703F0111FFC405D
0AEFE1000B03EC02E
32A011C0050157F7A
057005FFC4FE47F72
0A900340B2048C0D2
07403C4078FC5BF94
099FD9406AFC13F06
37BFBF3F41FB880AC
086026806EFF3BF09
335FBB811501BFFD6
3640033F8C036BFB7
2EBFCC3F7D043FFFE
303FE6BFAF00E8110
38800B7FF80450061
2DFFF9BFC903E80E8
02500880EC0487EDA
305018FF8CFD0400E
3F3FF1009702340F1
0A4FCAC0A302F000D
00AFB9FEF801C7F4C
3BF0413F7A009C112
3E6043005DFCD7F2B
317FF700B40254051
03AFBEFF1AFCD4055
356FBC80BC02000B8
31F022407204180D1
071FD4BF13FDA80B1
375FC8BF6CFE07FB2
05102480A20050038
052FD97F65FF77F11
0AFFE080F8FC6C017
3D503D7F1A02E7FC5
3DEFC2404B02CBF26
0B4FC7FF43006803E
31D00E802A02980E5
0690467F52FCFFEF4
302FE0BFE0034BFEC
09AFC5400201D406B
0C4004C04CFD17FEE
2EBFFA00AF01240EF
2F4FE2C0CD03480FD
3F5FF8BEE8FF17F8C
3AA036BFD6FFC7F0E
3E2FD880ECFEAFF2D
33EFC73F68010BF62
078FD43F66FE43F24
0E7FCE0017FBF808D
3F4FFAC01AFEC8105
0C803E40EDFFF80A3
38502E401E02C005E
06BFFB7EDE01880E1
374FEA0001FCE4066
31C0367EF6FFFBFB9
011FDFFF13000FF2E
0D200A40D8FD97F80
3AC00CC077FD34048
033FECBF7CFFABFD7
0D1FBB408C031C0C5
088FC03F23005C098
0FB0034118040BF6B
3DE04680E700080B5
11AFFA0104FF80127
0CAFC000540103F4E
379FD440BF043006D
04EFFABF0401540F6
324FFEC0C6FC37F00
0F8FBFC006039C05B
017FC8BF5CFC5FFBC
341FB93EFDFBC00C7
340FB800830124055
2E603FFEEFFE93EE3
075016008FFC67F03
35AFC6BFBFFC1000D
3C503EC0CE0100025
38BFD8C02B022805D
30A00C80F6FC64022
32CFF640D8FEE3FDC
07304600F2024BFA4
357FF8FF3FFC9C0C1
3CA01F00120497F18
2E602AC07C0313FD4
38F014806803F3F11
0C3FB8009902FFF73
042FDAFFBBFEEFFC3
083FF3BFA302C0103
38F010401E02BBFB5
0F5FC3BF33FF03F17
35FFE9800400DC0C6
06DFF70113033BFA5
2E6FBB7FADFDE4022
068013C08F0360001
39A0018081FB8C0ED
0D8FBC7EF2FB9FF97
091FD2FF2BFE4C0A7
372026003D02B3FDC
343FF8C0B3FE7BF6A
3E6FF8C04CFE380E7
3D3FBA8007FF7FF7D
3AE03B8034FDD00F4
3B8FCCBF490068012
34C01D401BFFB4081
320034008D036C06F
31DFD3FF0001D0022
3E6FC480B9FCCFEF6
0BB00C7FD9FC10094
0C400F00FBFD83EFC
029FECC0760258119
380FC7FFFFFDDBF21
325FDE0025FE43F24
09300D40D8FB73F70
0D30357F28FCE3EF2
0F00393F04FEA7F51
3CAFF640E8FF9C081
0BE029800FFE280C3
3AC01D400DFBFBF6D
0EDFEFFF70FC600FF
35701F3FF0FEB811B
3FB0140060FCE00C3
3AB01AC0B7040C0A4
0C4FF0C0B901880F3
075FDC40570287F93
2FE009C125FC4FFB7
3E3FCF4019FE200BD
3FAFEE00FE011BF51
3E501F7F71FE1C0CB
069FCA40CF03FC07D
3BB0013F4CFE68050
0B80097F3DFC1C078
34E00B3F05016FF57
10102D80CAFF0002C
09203E3EE7040FF27
04501F7F09041BEFA
30C044402DFFD0039
07DFE7C0A4022BF50
04E042FF4D0263F19
390038805EFF67FA9
044FFE40E9FE50069
060FEC3EE0037BF8F
10CFFA40A7FCC7FE6
0FDFC6C01003300CC
3F6000FF5701E0032
3ABFC4FFA8018BEFB
00E02A0009FCC3F0B
2F00267F31036802B
092FB77FCDFFB00F4
2E0FDB80C20374013
067048803DFF500FE
05DFDB011BFECFF60
309FB83FEBFE54055
2EB0467F45030410E
105FE14051FCF40CD
3E40163F700153FED
3B8044FF490348081
329FEA804EFECFEF8
06EFBA3FA6FE0FEE2
36BFC3FF51011FEF4
045FBF807EFDBC0C9
0C6FE380110013F04
021FC7C035036BEFD
0ABFC63F80FD8FFFE
11BFDA005DFFF3F83
3BDFE43F0600140AC
30A0457F2D02CFF30
05101940000267F86
3DFFE17FD001FBF1B
3D8FDF00F2FF880EF
0F9019C02802F400F
03200BC05402940A9
066FFA8079FD0BF97
2E900C3F82FF980E5
31CFCE404AFF7FFEF
3BF007FFDEFF240D5
0D0FF00014FC9C0BC
047FF5C05A03E7EFB
35F0403FACFE080B9
03AFC240E7020BFA5
322FDDC0A801FBFC2
3A8FF47F050370036
30103C4034FC0BF05
39EFE9FFBCFFD7FF1
30F049BF48038C0F7
1000070005FE1C116
01902D7F14012C0CF
33B01AC0FBFD34028
33DFB780EF0288107
0D20083FB9FDBFEE4
306FEF7F0CFC6C018
2FC0464093FC00019
0D9012FF8CFF6BFAA
08AFDB3FC20383F12
125FBE807DFD37F40
3770107FC3FD5FFD5
392FFFFF6F0173F90
3E8FCCFFDEFE6BEE6
307FFCC0E60493EDB
077FC9403D02B3FC3
07BFDB8011FEEBEE3
32401FFF06FCC3F3F
008FF44085005FF22
0B7033BF3FFE480A9
3AFFC2C066FD3C0CA
3EBFBA7EF4FD5C003
021025C09A00D8114
103FF27EDB0114070
346FDBFFBAFE24006
0560007F83FE600F2
3A1FE1BFAE01440C6
348FEFFF84FBEC06A
2EA0108065FD180C5
35C00BFEF8FDFBF8C
3D4FE87F0001BFFE2
30301BBF62032C033
018FBC80EDFE0000B
343FBA003C027BEE4
2F5FE480F1FE5FFB6
100FDD7EEA0284056
3E00297F18025C09F
00000DFF5402A3F7D
3AA00F4041FC9008D
0D1020FFBA0037F62
2F2042408DFDF7F76
337FB880D4FE6C11C
102FE7404B033BF4E
3A0FFBFEF0FF27FFA
35BFDCFF30010FF61
027FC4801AFDDBF0C
014FE540A9FF2BF1D
0F2FEB402B0458113
0F002D7F30FB67F6A
116FE18018042C0FD
30300540B4FB9BF5E
0F8FBB3EFAFC5407A
3DC041800C027FFA1
088FF380A90047F06
0F4FEC010000E7F6F
10EFD88025005FFFB
07BFBB40FEFC4BFFB
10C02D40920378078
0F7FB640B4FBE7EE2
3EB0033F79FDD3F88
01A031404DFF8C016
0F3FE84083FFA4093
3B5FB6FF4501D7EF7
0FBFC8C04E01500E5
323FD73F0202E0037
2E101E406201780AA
101FDDBF9F0093F33
0F302C3FD702BFF26
00A03980BBFDF3F4E
03603F0000FD5800E
0B4FB7FF72FE1FFF8
01AFBFBF32FCB3F76
3B3034BF33012BF46
321FCD3F09FDABF0B
331049404502180D4
3610417F88FCC7EF9
087FFD405C03B80AE
034FC20064FD7FF64
00CFCF0032FF7BF84
2E0FEC00E9FBE002E
004FCCC0F2FB87F4E
39AFD30074FFF7EF7
067007405FFD9011B
3C0001FFD10187F71
11D002BEE9FE3BF68
04A0000062035402B
0F50137F2E00A3EF2
3BA008FFDE03C3FD9
0E3FD5BF7BFD23F92
33AFE5FF830243F95
06603DFFB703F4121
01FFF6005CFF7C0D5
0FFFC4BF53FEC7FED
068FB9FFF2FFC7F31
2E302C7FC2FE73FA7
3E3FCB3FF902A00F9
32101AFF78017C0F7
121FCC4079FDD40AF
1200287EF3016FF2C
06AFD7FF05FBAC037
040FF7C10DFFC7F55
385FD041230014081
015044C03AFDD002B
00B039C0FDFE400AC
2E3FB74021FD03FD0
10A049407E0303F78
06A01780380278029
048014C03AFFEBF9E
37202FFFD0FEC40E3
09704441100417F3F
06E0010001036FF27
3D700E401CFC3BF5E
32BFBE011AFF5C0CB
0EFFCD3EFC0183FD0
0BDFF2BF2C03A80C0
3680267FEDFFF40C9
125005C000FEEFF29
04CFE33FB0005C013
034034803300E805A
392037FEF8FD47FCA
0AAFFFC10AFFC0022
318033002D0347F86
364036811D019411E
33501F3FCDFC5009D
3DF020BFA2048FFD9
0C70458075FCD4088
043FC2002C02B4087
06C0214118036BF7A
032014C0CD010C0FC
309FF900E400F7F14
02A02DC11DFD3FF97
10BFBA80F701940E0
00BFFA00C400D7FB5
32CFF680C403ABFCA
30A03B0081FE3C0D3
048FE5400B02FBFD0
39B01AFFBFFB8BF75
3CB018C027FDF3F35
33102FFFA1FF5FFEF
3B60273F8E029407D
0ACFFFFFCDFBA7FB7
030FF93F1AFF0BF61
0A5FDCFF3400000F5
30EFC4BF83FE54116
3B0FB6C054FBDBFAD
337FC04019024FF64
0B9FD6BFD900FC0A5
38D01EFF36FBF4013
383FCC3F44FC2FF93
0CA007FF8AFF780D8
384029BF45000FEE1
3D0FBABF1B01D408E
05FFCFBF5AFF7BF26
360014FFFCFE4809D
3E300B8043FE93EF9
3ADFDD7FD70038066
3F3FD9000BFD0804A
04300E004504200CB
3A5049410F0253FF6
3D7FE401120008006
3820454112027FF9B
0C0FEE3F73002BF36
0BE02100F803FBF34
077015BF25FEEC069
30603CFFF5FDF3F59
07702281160218119
038026FF2C0068056
0500437FD0021FF95
353FDAC05903C7F76
3F803B408EFF7BF18
35EFE7406B0418107
11AFE60048FDE80E0
390FDFFF05FF17F38
37EFC7C0BD03CFF46
0230043F930093FCA
382002C06B00440C8
3B3FD8FFC5FD7C0CE
0E4FC33F7B0074023
3A2014C08E02DBF0E
3480223EFEFD07F69
052015405C009FF91
3CFFC2FFFAFBA3F6B
3AEFF700BEFCB0024
348FD4C0BAFF47FD0
2E0FE940A9FE8802E
1180353F91019C05D
32A024802E002FFD1
0D6FFBC03403CFEDA
3FFFD1C070FD800DB
123FEBFFAA0057EDA
0DEFB7806301BFF9E
31E049805A0167F58
073047C0A7FD77F05
31D02B7EE8FE9FFDB
2F2027FF930437FD0
01DFC48119FC00097
37A01600C1FD00023
0F70217EE3045FF04
33BFF340D103F7FA2
2E4FB980C604A3FFA
30BFFE3F7C01D3FAA
03EFDCBF4804380FB
003FCD006D03900D4
0A4FDC40830457F0B
3F10267F15FDAFFE2
3CDFBE00DE013FF04
1180223F8FFDB3FF7
093FE03F93FCA3F41
099FE840E30037FDF
01E032C02C006FF15
3D9048C10EFE03F3C
32702C4113FF5FF7D
0C9FC03FB1FC97FF5
060041004B0124026
3A6FD700D4FC60036
0320267F3204600D2
34400D003FFEE7FD8
1220107FA1FC17FCB
38DFCD8001FDD4088
111FC83F9C042C0FA
2F3FF78104041C065
388036006DFC83F52
3C700500490458107
05701E803D04900C4
0E8006FF37049C0D3
3F30113FC4FE40093
003FF0001D004FFC4
04A0227F4DFD100EC
2E6FD0C0CE03E3F04
0CD03B7FABFBAFF90
352FEDBEE4FE500F0
35E01680CA02E40CF
0CAFD040EBFDD80BD
016FBF405301B8026
342007408AFE5FF5A
3D200DBFD5FEF3FBF
10400B3F79021FF31
052FE44022FC7807F
09000D3F40039BF72
33AFE0FFE8FD53EEF
00DFC4FF82FD7BEE4
3C2FCFBF25FF24112
36EFEA408802E3FDA
03304740D2015FF64
09D020801DFF67F84
30D01B007C00BBFD0
0C6FEBBFA0FBCFF20
338FBF7F3AFDCBF31
084044FFB4013BFF3
35C0013F48031C0F1
09200A3FBD025BF39
32EFF2405BFD7C10E
2F501C800B03B3FC9
3290497FCD04440B3
3C2FE4807BFE4C123
12701BC0040333F5C
0AAFFB8117FC78042
078040BF350178040
34E00680D0FCEC123
0DCFC5BFC50153F80
363FD8C045FF7C0B0
106014806903200A9
34AFF73F96024807E
0BD009805C006FF8F
08B0240101004FF2C
08B033FFEB032BF05
32DFC3FF52FD03FA5
026017FF130284099
033FD1FFD2FBD8058
04DFF48117FCB4015
0C8FCF801DFCF0123
3E8FD6BEE6030FF75
354FF68040FBF4034
092FE3BF160347FCC
09D0354069FCAFF95
035FE4C113FF8001C
052032806CFDF3F50
2DDFC3410AFB6FEF1
365010FFB9FE98066
2E4FFBFEDFFF18114
073FD1BF740277FDC
0F0FFEC00900BBFCF
31A02EFF72FE93F4F
11FFDA8074FFE4020
371FEB0039044408E
0BA01B4028FBC0117
321FEFC0EC0454006
3BB042C08BFBE00BD
0B7FD30118FC30023
30BFD0BFA6040C111
3CE036FF3802DBF1F
093FD640D3FB6BED9
0D701880CBFFC00C1
303FD7BF1D0057FF8
3B8FCBFF6500080E8
04D0307EF301A8054
0A8026C1260250031
3DB003BF26FD4FF8A
099001BEDDFC83FC8
336045FF8DFC3FF76
369FB7FF8DFD600F6
04603BC0D5FD58121
07704180F1FEEC03E
0BF0153F5AFBB0049
31402FFF7B01EFF28
0ADFBEC07A02BFF3D
04802C7F1E0290127
107FE07F2602D3F4E
31AFD0C025004FFAE
3BDFBDC075FEA401B
3270203F2DFB94068
0BAFE4C076FBD40AD
078FE97EF7FF6C065
32F01640BAFEA8064
3B8FE0FFB1FFCC00F
0C2040FFB50168038
2FB00AFFB10187F28
3DEFF4C0F5FBE8029
02CFC9C000FBD003A
3BAFCC3F99016806C
059FE4007EFBF40A2
339FFC3EE9001C0E2
3D1FFC0127FF87F9D
2F40227EEAFC3FFE4
384FCE40E0FF440A1
0B202DC0BAFBDBFC3
34A02AC0860260073
08C0248085FC8C120
10F038BEE2FF9BF78
33200CC044FE1C095
3AE04940E7FFA8118
361039FFF2FF97FDD
075048003BFD9FF02
364FEAFFB202C4032
0F3FE37F43FB800B6
114FBE402E02D7F0A
2FFFCDFF5B0237FC3
365FD680F0FE53FA1
38FFFE7F55FDD00BC
046014C0D4FE7801B
0A202BBEF5FCB0089
10D0470041FC0FEE2
0C7FDBBF9102B0072
10A010BF030343F5C
072FFE7EFD017C07A
08FFE87FFC040C0EE
005FECFEEA0133FE1
01400A7EF1047BEE2
0A30024094026411E
0DC02B40C7FC4805A
2E000C800803F8118
3D7FB77F64047BF4E
083FED7F4E0173F3F
0FAFE3BEE20297EF7
354FCE7F6B0140108
124FC0FF1104940EE
074FCB0067003408E
3AB047C0390343F15
384FB67FCC030BFF7
0FFFFCBFFCFC64083
0A2FC43EDAFFEFF78
2DDFE4409AFF8402B
2FFFBFBF9503CBF22
0190173F99FB7810A
11F03040F8042C040
06FFB8C11403F80F8
35F030FF02FF87FA7
3B7FC1FFADFDC0018
0A302540D50134009
061FFDBF230263F9B
3D503A7F060387F1E
03F01F800302EC0DA
386034008703C3EFB
33EFC17F6BFD8C115
09B0127F80FFD7FE8
35502FBFAAFE3C0A0
3A8FD2BFC5002BEFA
12500D403E037FF2E
360FE03F15041806F
10C013FF0C00E00A1
328FF9BF1AFFB403B
3F6FDABFB8038BF58
121FD0BF6EFFEBF7E
2F1040BF58FFFC07D
303008408DFCB4074
30300F407F04640BE
0EB00FFFE5020C0B3
33403881020357FC7
3E901B4109FEABF15
10DFEB009B0023F7F
043FBA4026FF2C09A
0AA030001FFF8C09E
37E030C0DD03F00B7
006035006F03300F0
30B0233FC6FFDC05E
08703DBF23FBDC002
39203F4120FB7BEEF
396005C00F0408030
08BFF7BEE2FE5C0C7
0A40043F900160052
033006C120FC9001E
0CEFDF4079FE1FF78
3E904280A20050007
014FDE4022FE44119
061020FFC3029BFD2
385014BF23FC6FFB5
007004409F0347F23
3C101FBF670483F19
044FC57FB0FD140D7
3A104480C600400AC
3C20417F9D0348114
078FC3407F0427FB2
0F700DC0FDFF5C0D4
31AFDEC0BA02A7F77
36A03880FE01200B9
35B01B3EF601FBEED
0A100F006C009C0AC
31DFE18005FBA00A8
2F2FDCC089017C063
38502C00FA03C7F57
0A802FFFCEFD83F68
126FC540ED026C01A
057FE700BA01240EE
03703AC0AFFC140A2
38FFBABF40FE1FF26
0D7032411BFEA8054
0D5046FEE2FDF3FDB
0610073F3B03D7F43
32BFC48000011BFD1
05901D4098FCA80BD
03AFF0FFB5FEBC08A
008FE68010FCD80F5
386FDF002503C809D
0F5FEBC0AFFE8BEFC
023012FFAC01B7EF3
09702180D8033FFE3
0B803D3EE5029FFC7
2EA00DBF1301440FA
0B802080AEFC800BB
350033FF260388026
027013BFA30327F95
3D6003BEEEFD57F67
3190350022FE57FD0
08D0224017045810A
07F0254117015801C
10203F80DF02440F8
39E01CBF770063F4A
2FD044002A032FFB1
3D40433F8AFC4BF5C
3E1038BF77FB7BF20
074FE80066009FF54
0630423FA303C803E
336FFD3F57FD2FEED
30FFF33EE1FD58015
0CD03A407F01C40D8
3A9FD3BF6C00C8113
2ECFFC0090FDF7FD9
34D01A7F0FFF0400A
00400D809AFDF00E5
0DF040C07E02D3F1F
39802C3F9804340F4
3CD01BFF780310018
3320457F68039FFB4
09C037FF2401F4018
38DFDE4087FBABF3A
3DC033811DFF2FFE5
3B8FC88120FF100DF
3CD0483EDA02E8085
0EDFDEBEEA033803A
04A0370066FBD3F81
3210027EFAFDEBF89
3E10177F26FD6FFAA
2E6FF07FD4FEF3F42
0D0FFBC0ACFE5BF57
2FDFDE00F7006FF7E
0D8FBD40F70433FB6
0B4013411000300D0
3A103C806701AFF36
303FF0005DFC9000A
0B90217F66FD5C096
051048BF6DFC90085
0CBFD6FEE7FC1406F
00F00C3FC9FD8FF62
322FDA3FFEFCBBFC9
04D023003F02B40FF
065FF3FF73FDE3F9D
2D9FC60001FBC0097
345FF5FF0AFEE3EDF
3B0FC9809F02E3FBC
0A0FC20121024BF1A
35802600CD03C7EE3
07CFDD3FFCFCC8084
34CFF0C120FD8C01A
3FAFFDBFE500900FC
2DA0123F5D042C07A
0070277F0D0013FDB
01502140FBFFD7FE5
32E03700A3FE8BFE0
0D5004410600340E8
332FF7410C011C003
0F102A00FEFC93FEE
082FC7C030FF80004
0A60297F8BFDF00D8
0EE01240E202C7F55
0B000FFF580013F92
01E01FBEE4FF480E5
098043C0C2018806E
3A9FD2C08B01C0104
35DFED7F8803D0015
09D01CFF18FB8BFA4
3820078033FD98027
0D8040407F008BFA4
3C7016BF1F01BC105
3A6FDC3F83FFA7FD7
11401F405304140AE
341008FFC6FDF3FD5
3E8FFEC04103B3FA8
0A902C000C0024085
01A0017F15FC0FF1F
3A6007808CFE240B0
0CFFC0412700A40B9
08FFE4FFCDFF18034
33500F3F18FD4FF0C
030037FF2BFD1C045
38CFC1BF89029BFBA
358FC080EFFC480E2
043FB9BFAE049BF07
308FE300910078054
075023802F000BF92
0000040025FF2BFCF
338FBC80ED040FFB5
07EFC93EE6FEDFFCC
029025404CFCA80D8
081FC8BFBF014806D
35FFB7FF04FD87F2A
33A01A004801100F9
3470043FBA037FFC7
0A5FE980AD0267EE8
2F200240BEFEFFF40
087047C0B002E7FA2
33703B00300417FF8
347FC0BFCBFC4804F
3220053FE400E3FE5
36A025BFAFFED3F65
0ECFC800EFFDCC116
39E02A800BFE67F86
38EFD83F60FD600DE
0CD0343FF1045FF2C
11D03FFF49FEF4046
0CAFDDC0FDFE4C0C5
092FD480B4FEEC078
331010FF86FE38116
05DFF9C0C6FD03F43
0A10487FE30403FC3
0400277F010227FFA
07A008C1050263F8D
378FFDFF88FF00051
04CFFC40B502D7F52
30AFC5C09E040C010
023006806D02ABF75
3ABFE1FFBFFF27F43
0DE003BF1700140CE
027FCC00F704280F8
09BFC640D303F0057
30502A80D9FCA3F64
2E6008C09500DBF52
3A6FE2BFB703EBFEA
3FCFBD800E048406C
320045FFDEFB87F65
09B03FBFE3FD0BF2E
3A9FDA80B6FC13FEB
37DFCABF070238126
084015BFCC047BF87
343012C0E6FDF80A9
311FF83FACFE080B3
0010464077FCB00B9
3230164041FF440BF
36EFF540CBFE64123
014FDC3FF903FC0E8
34E02D006E004C101
012FC440BD02F80FA
09900CC072FD5FFB6
0A702340DAFD20049
099FBA3F7301780BE
0C7FCE0083FD6005D
082003BF4CFF73EE6
2DEFD700AEFD27F71
2E5FC4BFF5FFC4106
10D02CBFDE01880CD
00F03EFFBD035C0B4
3F2FFC805DFFE3EFF
04603AC0C7FCE7F26
3F8FDC006D00E3F83
04F02880CFFD33F02
0D0021C09901AFEFC
3C1FDBBF3A0467F9E
0260134106FEA807F
2F9FF77F65FD78087
3E9020FEEE007C0CF
095014FFAAFF7C0D9
02DFC3C0AB0153F92
04500F7F47FBFC10E
32F0333FB9FDF80EF
054FC2C057FD6FF4C
044011C07202D8040
3C0040C080FB8BF89
0FAFCFC07CFE5BFD1
023FD03F38FC3FF28
3850107EE9FC53FF3
02202A8103FFAFFFF
01CFDDBFFEFBF7F62
10F045C100FCBFFD9
10100E3F2C004BFEE
0F2FCB005801BBFEE
04DFC780CEFC5FEF4
11F0153F7EFC7BFF2
31D02FC12401F801E
0050487EFDFF97EDF
0B1FE000FBFF940BE
00CFC07FEAFF500DF
08BFD5400802EC11F
030FB7C080049403E
324002BFC2FF5FFBF
10C040009DFEC40A2
33BFDEBF74020FEE1
3DFFDEBF2DFD33EDD
355FDF7FD002EFF82
0D9FE53F38FF1BEEF
34D0100051004C09E
3DBFE7FF9AFE780CB
34E00F3F31FCF811B
066015BFA90097F2B
07DFEA00FFFB880D6
0F1FE4010BFE83F45
010018FF6C011BF4A
04B024C09802780EF
3900227FD0FBEC10F
011FF5C0370287FB6
3E000480DB0433FCA
311FD480760488118
123FBC7FA901CC066
365FC6405FFFD40A3
3F7FE04085046FFAC
0BBFCD8032FE140CE
3B600C8112FDAC09E
0DEFE841220073FE2
00B00EFF76037BFDA
0DEFFEFEF4FD94004
109020FF88FE100C8
32803F3FDF048C018
06B014FF7401C40D8
320FC43FCB00FC101
0C1FD3403CFD80101
04AFE23FC5FF83FD3
2E0FC53EF60393F3B
061FC54103FF6BFED
391FC6FEF7FC2C0AC
046FE13F310333FBE
388FE8FF3CFC0FFFF
315FBC00430394019
2E0FBAC03BFC2BF9A
038039000EFF5406D
0B6FBDC061FCF00DC
009FDA7F710037F38
0A0FE680ABFE300B1
320FED3F82000C0EB
35700900DCFE07FB7
332FCE00BC03700E7
118FF07F9EFC9FFEC
2F7FF2FFECFC73F55
32B0340102FCCBF84
02B01ABFCF04700BA
2E303A0116FE6BF96
0B9FC6FF98FB94043
3FF0307FFF00880A7
3DCFBD00A10213F49
36701180990250121
37CFBD8008FDC3FEA
36CFBB3F84FD9FFC0
3E9FE93F500333F92
3F401CFF99FF33F50
0E30063F0CFC00004
2F603D80B6FEB40FB
397FD4BFCC014C0D4
30301200B1FE6800F
02CFD200CFFC2BF78
345FE5005DFD2FF19
38500780DDFE07F6D
322FC5FFEE00CBFF1
35B00C009BFDEFEE9
2FE046BEFEFB80065
11A00B4002FC5005D
003FE2011F0207F8E
00203FBFE9FBB007B
3CFFF57FD6004FFB0
3FF049C01AFF57EFB
305FD700F0006FFB0
39D026FFD203B404B
342032BF28FBCC0CF
10B0087EEE0240085
112FEEFFDEFC3FFAF
09BFBA7F1404A3F65
366FE73F00FE9BF6F
33403FFF29004BF76
04BFBA8002FD83F36
058FD5BF0EFDB4054
309021FFFC0028016
0E202F804EFE07F76
38C033FF43FD6FF7D
3B0FC140E10170089
110FC53EEC0208075
04DFBA8122FCCC0FE
3E1FD8C0040483EE5
303FF1805403300AA
0340097FCA0244070
06EFC47F7B0403F97
00C031BEE601A0050
00903DFF31FE200E9
0AFFBF8035FECC0E0
3FD02E80F4FB73F1C
0EEFCF8111FF8BFDC
06D01D80F3FE73FA8
03E0203F06FE67FD3
04B00300B0FD77F20
12703EFF6AFF20028
0B7036BF8800640F6
0C800B8123FCAFEDA
07BFDEBEF5FD43F31
10FFC2408E03ABFDC
2F3FF8804B02FC094
3A700EBFA80103F4B
0CCFCCC082045FF30
00B029FF8602E0010
39A004FF2CFE17F47
37DFC0C0650464088
11BFCF7EF2FE0BF70
38F027BF840153FE1
326020BF5D0150106
3E0FE90114FD58119
396FFBC092FDC011D
023FEABFEF021FF5D
1000357FC60300042
09100C01150477FCF
361FDE4124FBD3F3C
357FCAC0B803600AB
38CFF8805002F7F1A
038FDE3EFAFDAC075
2DFFFB0087FC13EEB
029032C0B2FD7FF9C
3F30213F86FE57F48
396FB73F2E02E7FA7
32301C80BDFE63F5D
0ADFEF001C049C069
0EFFB7FEE7FE8BEF6
04703AFFBC009FFA2
0A1FC2BFC1FCB00E9
0A70448110FE63F57
0BB00F8120FFC0113
0EE033FFE6031BF74
0A900B8021FDF402A
2DE02C400FFD480D4
2DBFC63F96FF20013
06001E7FAC03BC06C
03DFEFC025049C026
34E0428104FF70039
358031BF4D018BEFA
04A028BF49FC9C07E
0D4FE0C0F3FD5BF1A
34BFD5C0CF0318127
0C9FCD0075FF9FF8A
32BFE6BF8AFC03EF3
3B6034C0B3FD97EE3
3B6FF97FB8FDC40EA
3B7FFE00D1FCBFFD4
07CFD23FD7FD4FF04
03AFCBFF43001BF57
2E7FE17F27FD1FEE3
04D011C10202AC02E
01AFD6811DFCE00E5
057033C12602300C0
3CFFD04071FE8C0A4
35001F80F7FF34108
3D80227F6403D3F6C
3DC00F7FDB02B406D
33200EFF59FB67EF6
05CFD93F4AFC7C076
3D2FED3FC00007F8D
2E1001C11FFD6804F
392009FFB500D7F92
33403140EB01BC042
035FCB3F9202C7F22
0BFFB7FF3201A8099
108FE8000F005008E
100FBE40E1FCB8105
0ECFDE80E4FF0FFFC
3F503F4039FCAC0FC
308FCD411F039C09C
097FC03F7B039FF69
32CFDABFEEFEDFFDC
060FCC8066FE23FA2
0E3FC3404603A3F95
0B8FF2803603FBF2F
2E3FCC3FCEFD3BF48
00EFE57F6EFD84080
038FD9BF83FF8FFF3
398044FFF1FD9BF05
3E9FC74103FE50076
0B8FC00127FC64115
088FEF811C048BF15
3F3FC9009B0397F17
34E045BFF3FD53FF4
3F10407F1BFCB409B
0D1016BF29FE7FF03
30104480370017FDA
090FD73EFDFE7C10A
0AEFC280F8FD6FF2F
35EFC53F85FEE801B
3FF0070068FDCFF78
0AC002811EFCC808F
3900128020FEDFFCB
3A7FF13F3EFE4C011
0770348060043C10E
010FD43F7002980BF
0FEFC1005AFBCFFB7
35BFC87F4E042FFEA
2D9FFC4072FFABFFA
055FDABF8F011BF60
0C6035BFFD047BF6A
043032FFC60498099
11F00EFFACFFBFFB0
37002E3FFD00FBF1B
378FC5FF2B0423FC1
08E02940CF02800F1
00402CBEE403F3F78
115FF080E302980B0
33F004C107FFAFF44
05B03F0101FC8BEF0
012004BF3E008001A
021FDAFF1C0388005
3E1FEC00FCFF2BF53
3B8FBD008EFC0FF1C
07003F7F6D03840D1
04EFDB00B803CC0B8
0FF0064029FCDC0B8
00DFBC7FAF01100C9
12200880FA011BF9A
3EB022C079FF10116
34C01D00BD030C0F0
0ACFD90090FCDFF35
3B7FD67F58FC2FF99
090FFFBFB4FE2BFFB
09900640C203DFFAE
11D0480034FBABFF5
3D7FC240DFFBDC0F9
060FE3BFC8FD7C0DD
0B2FCE006C044BEEE
10F026FF10FF8C08A
375FFD4007FD84091
2EEFF97F94FF23F04
3FE0428017FB64072
33402080D6030FF8A
34401DFF9903C40F1
073FF4009AFCC8113
00C00A7F4DFDA8104
30AFCBBFF6FEF3FD6
378FD0FFAC03E40CA
2F30487F6402DFF7D
116FEB3F2102BFF6A
3F4FD200E1FD70053
395FD740E5048C03A
37102D004DFEDBEE4
0DC017FFB402A80F7
025FC24119020BF38
0ECFEB011B041C09E
03D03EFEDC0063F34
36DFF3FFB30170021
093038C0B101AC098
0490137FF203AC020
095007C111FBFBFCB
360039BF230467FE1
3B5FF8C006FCA7FAA
0E502A7F640173F3D
058FB7FF40FFE00B8
35102B8087023FF94
3980323EF9FBC00B5
003042FFB9FC0404C
344FCFFFE5FE17FD6
3CC004BEF9FF27F11
0DC0047F23FCCBF14
39DFD24060FB8BFB1
00CFB74080FEB401A
30F02DC0AF03B4068
35B02FBF93015C100
31203AC023032FF82
027FB7C0ACFC17FDE
05C01B7F2503D411B
38C0037F95FCFBF72
1190344110FD2FF73
0C1FFDFF6F00BC105
0E5FD4BF23FC8BFBB
33403F3EEA0063F11
3C8029BFDE03680BF
0D1009403AFF17FC8
33200E3F4D03280C4
0CEFF9C115013C107
360FBC7FDE01D7EE7
09F0357F13014BF6D
04A0067F4D008C0B3
317FDA7F2AFD28018
06DFE73F710137F41
073FEF811EFF1FFD3
015033FFED0363FFC
330FF87F17FE800D4
32F00B40AC0320090
3EA0224125FBC3F07
0C5FEEFF7BFF1FFA8
02C026BF7003F3EDE
318FC60093FCAFFE3
0F5FD84039FD4FFE5
30FFCDC046FE53F61
10B02A40CA019C10E
09F0463FC40214100
3D9FDDC0BF005401F
077FCFFFDCFE4C044
02803600F4FC18011
37FFE4C0A4FDA7FD5
3AE037FF1AFB7FF2B
0F9FC0007A01C804F
002039BF79FD37F26
2F2FEAC0D1009BEE6
0D6FF4C00503E00B8
398034C1180053F25
0DE015FFF0FF8801C
0BA02FFF4AFDFFF5A
2F000CBF77FBD7FDF
0DEFC33FC6FD380A7
06FFBE40E00298019
372FCABFDB04840A4
0EC01D7FF602C40C2
2DA04600F2000BFEE
076FDFBF24FFF0082
010FFA809600F4118
383FD581250387EDB
3C2025BFBC006C060
3DAFC6C0BC0003F8F
323FCD3F8BFD5C02B
36401B7F87FD2804B
3C300600B90463FA6
345FDEBF25018BFCD
057003FFD002400A5
2E601A7FDA02C4091
031FE8FFD3FDA7F1B
0DD00E404903FC0CD
04CFB77F9702F7FF8
113039C0DD0124047
0EBFBCC0FAFCEFF5D
04DFF3BF24FBBC011
2EFFBC7F7D03D7FE1
115006407800A4098
3EB03ABFE8FD600B8
0E00447FDE0347F6C
329FED00310440090
005FF83F5201C008E
07C01CFFD0FFE00B2
399FEF011AFD5BFCB
33E0318001FC2FEE7
3BC0327F4D0044122
399FBC3F79FE540D7
3D9FCD00AF01A7F88
366FB94053FF0C031
0AAFF2FF3503D7FD0
03BFE4BFBE0397FCC
3960123F4DFDBBF53
0AE02500AAFD7001C
330FEA00D5FFBFFD3
0A104180F1FF3805B
0320207F7EFE4C0B1
386FFA7FAD0464122
07D00FBF6DFF9FFBF
10F03300CEFB80071
34FFC240BD023BEDF
35DFB7FFB502D3F2A
31F033807BFE0FEF5
0920423FDB005FFA6
0CD01D40E50438124
315FCB402800E7F6A
2FAFEA00190020057
126FF9008BFF73F35
122FCE40EAFD9FF00
00FFED7FB701D8122
31302CFFFBFD9BEE9
0B7FDC7F7A009BEF0
0000243FBBFFEFF73
377019BF23025BEEA
0FCFE90091001401B
362FF33F0AFE63FFC
02AFBB008701CC040
057FE3C0CE045010F
2FB01D8074FF4C057
0C3FDFC01402EC122
36DFBC40C1021404F
3CD030BF0501A4005
0EE0100074042FEEF
348FEF3F93FEA411A
2F5FBC3F6BFE1BFAF
390FDC80ACFC20011
3F7FB640920144070
09E007C08CFEC4121
00D040BF2D049BF19
02DFC9FFE8FF93F56
04DFF93FEFFE77F11
039FBF4076FCD00DC
0CEFCA8050020BF33
3AE037C06A02FFF9C
0CE021C02F0237F33
027FD4BF8CFF400AF
3CA030809003BC114
0A4FD440E50120063
394029008301D805C
08CFDCFFF7FCD7FF3
355FCD006300000BF
2F80263F48FD93FDE
3FF00F40A404100EE
0DE040C0C5FE44073
340FEABEE5FBC3FA2
321037BF0602EBFB6
068046FF410028044
0DAFEA7F61FBCFF17
3910420006FEC3FC5
0CB01F3F16FEFFF82
3CA048C0A3FDF4006
2F7FFB7FD002D80DE
360003FF670318094
0E40427FBBFE93EE3
39302CBEE0043FF88
2DB010BFB7FEF80AB
1130203F31FD740C0
04AFCA3FA6046BFC1
34AFB77F7CFF7009F
37A016BFF90047EE9
30600B3F7EFEA800D
0ABFF13F54FF37F73
3F9FFDBF86FC0FEF1
3B9014406DFEAFF45
118FB8BF7CFB700C2
2DCFEEBFD3043BF61
05E03C00F0FE47ED8
042026BFD3FBD010E
39200880C8FE34116
0CFFB8FF2F001BFDB
3BFFE5C02A01A00E6
023FF60108FD7FFF8
0C9FD97F8603E3F1C
2FD0258065048BF9D
0260077FE3FC6BFA9
3C7FB6BF2601A4044
0B0FF30128FFCC024
339000C094FBF8075
2EF00D001C0270035
32EFCF80C0FBFFF2D
10A01780F900700E9
309FDCFF79FF24032
06A03DC0C0036FF09
013FE0411302FBFE4
08701E008E0007FBE
3B1FEA7F25FBBC04F
36B0434108002C013
0DFFFC80ECFD37FC1
3E4FD6FFC6010BFC8
346FC8BF44FD0C0E2
373048009F03DBEF1
3CC0433EDBFE1FF06
0DF0343F54FC77FA8
309FCD8099FD7C112
0B9FF6BF4DFBD4044
2FAFF480470364006
102FC13F25FE540B7
2E80353F8C01ABF57
0A4FEAFF710317EDB
3BC041004EFCB7FB5
30CFC43FAEFE1410B
344FF9409B01800F3
087015FEE302FBF87
32AFEA7F3FFCF401A
32BFFD7FF7000BF6B
0BF001BFAAFDBFF86
38FFF7FEDBFDE411F
0DDFE800E20414106
3F3FDDFF7BFEAC0C7
378FE03F63FF47FFE
05AFC78071018C090
079FE2FF88FCFC080
0EF0353F25032C08C
089FDF801F01CC0EA
30DFE140D200AFF86
3BBFE97FBAFCA3F86
362FFA40D90363EF5
01A019BF27FF580C3
35C03600BB0134120
3C3FCDBFBAFE6805A
02E01AC0CFFCB8067
018FF00041FB980B6
0AEFF03F08029C0ED
057011BF1C03CFFC0
0C5002411D0000042
3E2FEAFF900244077
02DFEB00C401B4014
375FEF80D6FE13FB1
3E3FC2C02002C40DF
1090157FEE044FF45
0D6FF13FE90000055
043FCB800D00D800C
3F400DBFD9FFABEFF
0190438041FD7C0BF
37304740A9021BFE3
08A0167EDCFF0BEF5
040FD8005202C0035
012FDA803B00F801A
3B9049C00401CC048
35AFFDC08103ABF66
0A001700EFFD6BF96
33E03EBF6C0283F73
03D0440026FD64064
0F8016C11FFE7C116
00901F4078FFA40DE
022034C08CFDCFF25
02EFF7000A009C0AB
0E501B7EF5042BF0B
3F0FD7803E043403C
3080107FFB00DFF58
3D600A3F99FEFFF33
1000403FD401FBF46
0D4FD7BEFBFFA3EDF
118FBEFF66017BEF4
305FDFC0B90397F76
01BFE0FF6BFE1C0DB
0E3FF88045006BF48
31C020BFA3FBEC053
0BFFFFFFCE0403FB1
11101600F8FC44082
0BCFE200C800AFF70
2F0FF6BF7301440DF
39B01B403FFBE7FC0
04AFDB410001F405F
08BFC53F57FEEC0C4
103FD100C8FE07FB6
078000BFB3FE3BF2C
0070248063FD57F6E
066021BF1F04480A2
379FEFFFF003CBF14
0BF01B40F603A8010
3B3014BF7301880B8
00FFE5FEDD044BF10
03103DFF5BFF9810E
017FF94065FFC807E
36AFD47EDE00D3FB6
3C1FDD004CFE17FE0
3BDFC2C10DFE240AB
09CFCEFF7E0043FF0
33CFCB00AFFC5FF9A
382FC68082FFA40DB
3D30053FCDFDDC0DF
35104600BBFEF40FB
3CB01140B4032802E
2DE03180D4032003D
0EF0153FE8017FF1D
0A201B0110FBAFFEC
0F4FDB0002FF280F4
3D502AC0B3FF58008
396046BF8AFEA7F87
10AFF18056008FF3A
3D400A7EEAFE38005
0810207F3CFE93FAC
0B70067F3DFDA806D
0C8FC9BF010158039
095FD5C110FD5FF5D
3C503340A80458083
3C90467FC20164034
3810477FA900100BC
361FE33F54FCBFF67
00701E80130457F63
109FFE00F20353EE0
320044C0E7FEC7F7F
03DFF6C10D0337F8C
026029BF84FC13F94
060009FFB1FECFF2E
2FE037C0ABFF3BEF4
2F0FCD00D0026FEDA
02CFE6FEF3000C071
3F0034FF66022C0A4
3340223F22FD540FE
09D044810FFEE3F46
0C3FEAFF69049FF38
060040807A02BBF6A
3C3040FF1AFD4BF83
35A00DFFD6FE0C101
2F9FF37FF100D7F35
350034FF8A044C04C
0C3FCC3EDDFDF3EFE
0DA02800C30437F23
085011403CFCCC099
11D01E80C3028BF18
3EAFF57FF8FF6BF6D
0690310040FEC002D
08CFEFBEFEFD7BF67
0DEFDA3FB0032010F
3A6FE34005FD0C066
075018804BFC40064
047FF74055FD6C078
394FC3800603BFEF9
379019FEF0FEB80D1
375015C054FEE80C5
0560003FBEFEEC092
347FBE3FB402F3EDC
07A0247FD70097F19
000FBF805A0453FD4
119FF57FC101400D8
02CFC3405AFFF7F94
01803F7FCD0237F1E
36CFBA7FF2FEB3FD6
01CFF6FFB9FBA8004
2FC0233F71040FF8F
0B6FB640BC040800D
10803C40880097F13
34CFF8407C00DFEDD
368FFF0020FECBEFE
3E2005BFEBFE23F7B
038FF8FF58FF400CB
36FFEF3F1202100B2
310FE8BF3CFFB8022
088FCCBF390260065
3F20277F5901B7FC5
35A025804E001C0C2
3FEFBCFF850127F49
34D0448002030BF52
0C8FBCBFE102280ED
3FDFC1811FFD3801D
340FB67FBF00E3FCE
3D7FF240CDFC4C0A4
045FD20027FFCBFAE
0E100AC013FEE801F
2F4FF3BF6203F807F
334FC68115042BF7B
3CC02D8025FD17F33
0A1FDF7FCEFC4C002
02204100E2FC840DC
0370247FA6FD280EB
03B0003F320210111
0F70347FF1FB780C2
010FE780CF02EC0A5
0ECFF84102FDD0030
05EFFB7FD600940C0
2ECFD2C0E00304098
2FE032BFCF01B3F1F
03A0263FDFFCF0038
3A2FBA0095FBE8125
3A70207F1B0348044
07302D403CFEA40FB
02902F3FFBFFCC066
081FD780520147FA3
3F4026C07EFBC3FBB
33203ABF90FF2FFD8
00FFDB7F30FC9FFAF
057012BEF60460020
09AFCA7FBEFD380FD
0040283F730177F0E
36EFF37FF503D8106
374FEEBF50FF6BF72
083FDD3EE1FC98121
0C70487F780484094
2F4000C0980044025
0AB0143F3BFC9BF51
33900780CD047810B
3D9FF3BF02FC88083
0B2FD83EEB0224093
3B30053EFFFFDFFF7
339028808403100F8
127FEA0124034BFCB
0C9FCC3F19FBF7F4F
354FE4C0BFFC97EE5
0A0FC70102FB6802B
2DDFF88027FD0FF85
2DCFE97FE304880B8
09FFC8BF740067F14
110FE9FFA300640B0
115FE57F12FF13F69
014014011AFD080FC
10802E7FE50394047
3B7FF540EDFECC00C
38BFC7407C0250016
0740493F58FD4FFDC
350042FF2B047BF04
054FBFBF14FF74086
3750273F93005C0D6
06F0183F9000DFFD2
0BDFD27FC6FCF7F46
361FE37F0AFE340ED
3FEFE900C5031BF71
071FD640D2039BFE7
046FF6FFFDFF40125
07501540530290059
043041FF8301DFFA7
05E0037FC4011809A
0C004281160287F4E
015FBF40D1FDD7F0C
3BC0254067FD1FEDB
050009807E026FFF6
3CFFF740FD01DC0B6
07BFF280DC011FEE4
338FD0FEF4FEA0127
32FFC3BF89FD2BF45
008FD9402803FBFA1
3C3FE34078FD93F73
0CD019801FFED3F48
38703500C4011008C
364FC100380397F87
10B040006300000D3
329FBBFF56FFDBF9D
3D0042BFD7FDBFEF9
027010801A02840EF
34301DC01AFB6FF80
003FFCC023FFAC02F
0F8FC0C11402BBF31
107FDCC07501900D1
32FFFD3F3E02CC000
3BE00DFFBAFF23F5D
064FE83F7C02FC11A
359022FF83FC37F05
3DEFE23FAD01D7F4C
05FFC17EE80318108
398FBEBF4DFBBBF41
093027C0C801CBFF1
30BFB67F44FD8C0DD
301FCFBF61FF94125
313FD1411E00FBF45
0200027F41FC23F59
0EFFD301200450101
121FDE3EE6FC07EEB
06DFC4C0FE0053EEC
011FCB80CDFF200F7
38A0337F48FE73F93
073014BFFFFC38041
0EFFBCBF3A0467FCB
2FDFBE80010273FEA
2EC0453F82FFF403D
33E00CFEDEFB9BF79
0B4FB9FFAE01A7F01
0CD0273F41FC6001B
3F902F3F3F0474120
05202DC06AFE0BF84
315018FF22FD4006C
0B703C407403D4032
07800BC02B0137F94
075FC43F66FD4BFA2
35504680AE013FFC0
35D01B7F0600D7F28
32CFF0804A008BFFE
0D7FFCBEDC03F402A
305012FF300220001
059042FEDBFC04052
37B04740D4FFABEF5
00CFF68018FD3C0FB
3B200B80E0FDAC07B
2F8FC940D5FFB805A
3810137F01FBD0008
0C0FF44035006FEE0
018FCCC06C01E006F
2E600FC070FD400D4
345FBBBFA601A405E
315014BEE302D3FCA
0640337F99FCB7F57
0B0045003CFD540B2
0E0FD9BF3603B4003
0ECFBDBF47FE27FC4
3F5022BF9BFF4FF5C
107FFB0082FCCC0BB
09BFF83F2903900F1
38001340F9FBFFF82
0DE040800AFC200BB
3F6FE300A9FC9C0E4
39FFD9C066045BFAC
0A3FE37FE4FFBBF48
360017BF14FFFFFB6
0B3FCD40ABFE0C070
110FD24041FBA80A6
3D9FBE4042FCD4059
032FBC7FF4FD440BE
070048FF600193F1F
0FB004FF220367F60
0AD020BFEB02AC0FB
013FF6FFC403F00D4
0CD045FFAE049C067
070FD84023010C06A
301FB8405BFEEFFC1
33F0370028FF13FCB
028FE8BF0FFE7BF7F
37C017C05AFD47F94
2E7031C0B90297FFD
08A0237EF1FE43F04
312FF0BEFFFC6BF9F
3FFFF780A6037BF38
006FCAC045FEE8126
39203540E7FF9FEE1
312FEFC0AA043C0D4
098FF17F79FFB7FD3
0EE0124114FD23F55
3BBFF0404703D0000
378FECBFA6FCA40BA
083011C09F0288121
2FA01D3F4BFD40035
2E6FC10053FD93EEA
06FFFB40BD028805E
307022408F027FF89
06EFDC4106FFF40D0
38CFC8BFEC03A7F31
37D0387FA7FCEFF03
0BA014BF78039011C
120FF17F67FD40126
0020227F09FD9FFEC
3100387F5D0437FA5
336FD13FD501FBF87
3500360097FFB7FB5
329046805C04800C3
0930414106FBD4094
321024006003AFF22
349FD08063FC180DA
08001AFFBFFE64111
38F02DBFFF013C068
3AC021000DFCC40DA
344FDF8115FC84090
09AFD5C03B02AFFF4
3F302B4039FE78122
0DB0443F02FE5410E
041043C0A1FD63FE8
36BFE43F90FBB7F38
04A01D7F4A0497EDB
064FF93F41FD7FFA1
0E7FC7FF1E032802C
0A1FF0BF39FE240E7
00902E005CFE9C0DA
086044BFE001A7FA8
07FFEC7F60FE8C0C9
38B039BFDBFF5C064
045FFC3FBB0474053
2FAFCA3EF602F002A
0D4FCE3FBD0483EE5
095009FF5DFCABF87
077FF73EE502180EB
0C4FD97FF3FE7BEF3
11702E3F9902FFF0F
0B4FFA8111FBEBF43
0DFFDA3F7002FC127
071FC4804DFBF80D9
0BD0103EE4FDF004B
3070217F95022C0DE
3B4FBF40CAFDC7FF6
2F002FC0B8FE14067
3BB02F7F6AFDC3FB1
0FD0323EE4FB880C0
0D3010C040FD9BFB1
3A7FBD007EFC94075
0F500BBEF902E4057
34900C7F27FDC001C
0B5FD40045FE8FF2B
02D01500FDFEF3FB5
034FC440D8FD73FD1
089FC2FF6A00F7F24
39602B3F5E048BFB3
39201CBEE2FFB7F65
0E902CC108FFA7F39
325037C0AF046FF48
03A02C3FCE007BFB7
00A030C0DB041FF56
344FE5C03D0167EE4
33DFCC80C3006BF93
3B5FEF0088004BF0A
35FFD64007013BF57
0350447EFE046BEDE
3CF038BF49FC24003
03DFD77F69FDF409A
2F40053FC7FFEC05C
0620364044015811B
02900AFF19FDBBF7A
3CD03AC042FEDFFF8
0E5FB900E4FB6FFE0
0AD0007FF10178078
397FDABFAE0240082
3F5FF27FF403AC098
3B800AC065002BFA3
064FFF40F1027BF3B
0EEFCABEF802A00E5
09A03DC06EFEDBEFE
0B1002C04401000D8
310031C040FE0411C
36A01001080013F1F
2E9FD2406F03F3FB2
34AFE400F50097EF9
011000809C0323F8B
0BCFB8FF4F0363FA4
00E04300BCFCBBF37
3A5FEEC01200EC055
0D5FCF403F012BF46
0EEFE940EAFE9FFDC
011FBA8104FBE40DE
376049C0C1FF58063
11802F01040187F78
0C1FC100E0FCCFEF6
03FFD1BFB900E7F5E
3120334060FEA0054
11C04200C604980DD
3A2FFA7F8E024FF6E
0CEFE83FBCFF68087
067021005F024C092
31DFC23F5E04080C8
08EFBA3F3BFE8BFA6
3ED028C0CB000007A
02203F7EEC0308103
385FCC3F2100C800A
2E0029BFF60253F35
3DBFD580CB026C0EF
2E5FCC00AF015002C
3BCFE780100273F3A
0BCFF63FCCFDAC112
06E021402003100C1
2E804900FBFD2FF0F
2ED038800D0487EEC
3A20277FD5FDF7F4C
3B303DFF2CFC3FF6A
0C603E3ED90340082
119FBCC0C301F4085
074046007F041C107
34902000DDFD68095
341FF74054007C050
105FE3BF7FFFE3F69
038FC83EDE007C038
124019BF27FD93EF8
111FEBBF13FBF0111
0ECFFFBF6E0428045
0950257F35FD27F4F
3EA01FBF37040BF94
39C030C019FBC0108
3ADFF1BF2100F7FF8
06D00E7EF1FBAC017
3C0FB7C032FC580FC
0F9048BFB9FDE4104
3DF0490107007C06E
3B0FC5809A00A0050
3EC0407F9E027808B
3DCFB9C0AEFD08007
3C201640C3019FF84
069FD97F53FD63FC7
2E30083F730234070
3FB041C100031FF54
06AFCF3F7F030FFA4
112003809A01FBF24
2FE03280BDFF98031
38DFE8004803C40C1
01601CFF8801E408C
325010FFCBFC8BFBF
392FF2BFCA0197EDA
0A60127FE7FC2BF15
335FFFFEEDFF500D8
385FFA40C2FEAFF6E
122FED7F3400040CC
352038BF29FFA8004
037044FF15FEBFF9E
31AFF63F650017F23
016FF4806EFBA0120
39803B3F16FD07FFC
07CFD5C03CFF8C040
326FB90104FC880A1
090FBBC109036C092
39001A3F810067F8E
0ECFFD003B0004025
020FF5C0C4045C11F
377FD78070FD2FF31
11AFE1FFFD036BF20
0F9FE1BF3B0413F90
3D7FE0003E02B810F
0250267F7401D4012
0EAFD93F4AFDABFE8
3270363F51FB68027
0F6FFA4022FBB8013
2DAFD5FF08FF73F76
018FD03FE9FBEBFA7
2DA0087F1DFFC7F49
0DCFE33FD0FD4001C
366FE0C06400C80C8
34103BC02BFCC8087
2ECFD77FC6FCFBF5F
02EFEE3F38035C03C
372026BF87FBC40C9
0260074038FEA00ED
033FD23F550137F11
3E8FBABFA602840C2
088FBDC0A10297F37
31701B80C5FDDBF58
332FDD7FFBFD580A2
376FE43F320497EF5
0FF01FBF74FC9C08F
2FEFFAC0A8FD1BFE8
089FE07F53FE8FF49
3A7FD60087FCE7F3D
0FCFD20043FB97F71
39FFB80024FC5FFFD
397FC640B8037C070
35401CC041017BF2B
01F046FEDF006BEE3
071037FF63FBBC0B1
0D7FC1C00C007C035
0A0035BFDBFBFFF8B
0DAFC8401801B00DB
0A8FECFFEEFCB4087
00DFF780C101F3F7C
0B204400E7FCF80ED
3A5FC280E8FD63FB6
3C7FF840DFFD780A7
0D3000406500B7FE3
105FED003101D00F8
39D03EFF2E01CFFD0
31CFC8007202B4111
31401A409E01EFFF0
36B03A7FE703A00D4
12601A8028FD0BEFA
11F02240EA01C801E
34D04801050057FD0
35E03BBFE200CFFBA
045FCDFFC103D4016
08F01D0098FC4FFD9
308FFFC092FBCC09B
06EFE0BF74FC3BF39
39EFC601240434102
3E5FB64037FBD4111
030FE240DEFFE00A6
35402F7F8DFFC0065
3C3FC840C4FD4BFE7
0AA03B3EE103B003A
067FCA3F3C04600BD
09D03680C7036C0F8
07DFF400BDFF9807E
09DFB73F9AFCDBEF8
3A603C0066045BFCD
34AFBEFEFA03F4006
392FCE004CFF63F47
3AE0018125FBF3F4F
3020417F9DFC0C04E
3450207EF203A00E0
3B8FCB8087FFA7F2E
3AAFED010A038BF4E
08800C411AFD7C091
0AF00A4037FD13F43
01FFDFC04B012BFA7
3650070054041BFB8
2F9FCD804DFBE3F00
0E80428088FCC7F05
0E5019BF29FEA00E9
00B01B3FAEFEE00CC
3C4FFDFFD2FDE3FC4
0C8FC0809901F4101
104FD34109FFD7F99
31F011C04C03EC0CA
2EBFCD7FB00317F49
09CFE4C0CCFD800FE
3DDFEE409AFD23FE4
3F00043F5E033804E
2F6FB8FFB802F401B
3B5FF63F29044BFE6
05B00F7EDA003C066
06402FFFE2FDBFF35
301FFB010AFDABEFE
0A1FD9C11E034C02F
2E401C4047014805C
2DEFEDC00D021FF9D
0A4FCB7F7903FC102
2E80130004013410C
3D0043C00F008C047
0CB0137F85FDDBFBB
387FCC008DFF24076
072FF800FBFEC804F
016FBF408101D4097
11BFEABF2AFFD4017
0DA0143FBE01780C8
05A011FF28FDE7FCD
03801B403402540CC
0D5041BEE3FB87F58
3CCFE0806EFEA7F23
313002FF1F017FFBB
39CFF6800D04540DF
33602A7F150178015
07F017800702E00A2
35903C80B4FB93FE7
37A002405600F006E
0CAFF4FF8000B7F4A
01002D8058FF3011C
0A6FEABFCEFCB7FE6
09001400E9FEC3FF8
3D00453F18FDCBEE2
0EE0487F75FCAC0D0
0B3FD37F03FCBC079
342034411EFCD7F0F
3A002F402503BBF1C
0CEFDE3F2AFC2FF61
339024FF62013C0D5
3C0FDE3F3204900C8
02504500F204240E3
34EFC8001DFE7C056
339FDE40D2FBA00F8
04CFE28044FD4007C
07600D7F5E0173F1A
072FF1C02F00AFF8D
3D9FD2BEE9FFBC111
0FCFB9FF64043BFD7
308031003FFF73F71
0C0FC53FA20020094
03003BFEECFC7BFAB
335FE93EFB0410016
0DD016FFC3046C022
0E30178022FC60032
0C4FE340C8FEB7FB2
3860157EDFFE1BF86
37FFC3BFF2FBB40FD
34C0433FFE025C0DB
344FB640AEFDD7F96
2E003E7EF302DC0B5
3E5FC100F70157EE6
317FC23F5E0474015
037049C113FF580A8
314FD17FD90068047
3B802D7FC6FC68049
34D0137F1FFCC3EE2
03D02680DE045C0A8
02FFD1FFF6FD2BF26
03B045C096FCE7FDE
3CFFB70117FEDBF5F
3ACFF400FCFE9BF63
39DFBD8044FE67F95
105FC3BFFE033BF73
2F902AFFDCFEA80FD
3800043F10FC740F3
33CFFD009AFBC7F22
37C03CBF8D00DC0FD
399FC64088FE23F29
057047BF29FCF4006
122041FFB8FFFFEFE
01A03580C001D808E
3A6FDA40DFFE2BEED
39DFC3011FFD3C044
00403F0069FB94099
2E5037BF74FD0C033
3D80463FF300E011E
0A0031C008FECBF8F
306023FF6D0303FC9
0AE03900740213F2D
2FEFE3404000F8065
38CFDA7FC2009BEF9
39C0237F2F0448088
386FF43F2FFDEC07E
009010BF0CFCA808A
03900D7FC0018C043
2EC0040064FB6C118
32FFDA406503C802F
06B00D00ADFFB00AB
08B033BF57007403E
07FFBF01060017F14
363FF9BEF4FE97FA0
10801FFFCAFEF407F
00EFC7009B00980E0
054FB98036FF1BF57
0E70213FC7FDD4106
045019C003041FF59
3ABFD87F5F03B808B
3B7FF3BFD80424092
36BFC93FAF0253F0A
33BFD9BF180328029
000FCDBF0CFCC3F00
3A8FDB00D7FF5C0C9
0E503D0103FDEC0A1
000FD73F0DFE30044
346045802F037C125
0D3FBF7F240053F2D
056FECC097FFF40CC
3F5FEB3EDE030C0E9
39AFFD00BCFE7BF66
065FD1FFEF014411F
3BDFC1402902A8126
392FFCBF16FEFBEEA
023FB800B2041C068
0BE00C4086FD7809D
3FFFDBFFC6FEF7FA7
06402BC1270453F76
0ECFDBC024FF6FF42
303FE1FED90373F64
0CA006408503A3FCE
073FBF810C048C048
0710343F1202C40F9
3B20234022FD44095
377FD83F280184017
37F0243FDAFB7FF0B
0BEFDC7F7B018BFE6
0F50470053FBCBF2C
36103EC11F00680F0
3EF015406DFC700F4
31F013C0ADFBA3F30
122FE7BF77FC000FE
0FF012BF7DFFE7FE1
0AC028808EFFF80FA
32C0337FFFFEF8114
3E7FBE80A204980A8
0EFFB9BF5D040BF30
02402EBF5BFB6402D
2EC023FF42FFC8043
1230158048FB74091
0B7049FEDAFD8802F
089FDA007D02A3EF8
086FC580CF0023EEC
2EA004C01FFF10126
3DB003BFE4FC08011
3B802F7EE5027803D
00B0367F4E0293FBD
336FF640E803B0067
01DFE57FDFFF0811C
03803B400DFCA3F3F
029009C105028BFA9
0D7FE280B2038803F
060FE43EF5FF740A4
035FFCC076009FF69
2DCFD2405DFE64079
3E9041BFAB0313F52
0CCFC47FC701C00D5
32B01240DAFE7001E
084FC8FF6AFC98109
0E0FEB808E0347F39
2DEFF740C1FDDBF31
0E5FC97F51FEABEF8
09603EBF770198024
038FC20007FD40119
01E04100BF022BEFF
0C002100E2FBE7F10
3AC02ABEF50104049
3B000A800900BC078
0EC0043F2F04680BF
32FFF63EFCFF5C063
3B403FFFB3FBC0068
035031BF41FDE3F35
091008BF190137F6D
0B903EC0540030093
33704240C5FC98041
07BFBDC0C2FC47F1D
04201540B40147FEE
0BAFE2808DFC20118
0010337FEEFDE3F45
3CFFD0C0510017EE0
0C7FBA3FBC01CFF94
12700DBEDEFDAC123
3C300F7F3C01EFF5B
0FDFBF40BE02AC0B8
398FC5401CFF4402B
0E20067F3A00580B6
0D500900F1029C06F
3E903A8122009C110
049FDC8054FE24109
047FB7FFC3FCF4109
08CFD980BEFD280F0
394022003D007408A
340FD1004B03FFFD2
3DBFBFBEDC03DC0DD
0490477F5B028006D
3F5FDCFF65FFD80C0
3EC00501070447F5D
0E00363F4AFE47F42
03B0047EE7FC3C06F
0A3FBE8078030FEDE
3570083F4503DC0C2
3D2FD8C0CBFFB801B
10F04480BB00A3FE9
044044FF75FF5BFCC
10D0203EF00283F14
0F801DFF16FDE8095
3E3FC7C065009BF85
084FBAC02201BC065
31B014C00FFD13EEE
0B3FC8BF48FFA80F3
38BFC0BEDDFE3C093
3C501C4122034C0F2
3DCFFA7F27FF240D7
39FFEA3F9EFD24033
3EDFBA3F7803AFFE2
30DFBD009A0207F92
2F9FBA7EFD02FBF7B
0E9FE78034029C05D
313034BFD4FEBBFBC
0A4FEE4012FF000DB
082FF5FEE201C40F3
3A0027FF54FE27F86
35403700470220112
3A101F3FE403BBF4E
33C02B7F750313F14
100FD1BFFB0474059
0F1FFEFFA1FE9007C
0F9FF1806AFFCC0C6
38B0263F46FC5BFF7
0C9FD7C03600E8049
3C3027FEE101140E2
05902A7FD70183F23
0EFFF7007D017BF88
016FDEC04E03900FE
0800273FC3FEFFFA8
306FC7C014FC28126
2F9FDABFCB000FF29
3CBFB9C0F5FFD40B3
33E027FFEA02EFF72
0CB014BF6A03BBEF3
0F1040C056FC8C00E
0A9FC93F72FE340FE
11BFCEC03CFCAFEDC
047028406A033BEF1
3C4FC9C09E03D7F69
0C90187F97FC1FF73
07EFE8001EFCAFF86
0C4036FFBB02DBF00
0D6FEB80F203A0037
2F801140670478015
39B0428045FF03F27
118FBAFF63FD5FFC5
3ECFDF409FFEA8059
11000BBF0AFC5BF29
082FEE007B03D008E
2E5FDB0099000BF63
2EB01340ED02F810F
0A7FE2C0D7FD8C013
07D016FF2FFEA7FC8
3D5FF2C028FFBFEE2
2F1FEDFF0C02E4023
06FFE5009DFBDBFE9
3B4022FF67FE07F2F
2EDFF87F3901EFEDC
08EFF1FEE8FFB0078
3A4FE08120FF4802F
30BFBA3F370210078
018FCB3FEA03400D6
310FCFBF3300F40A5
045FC54104FE53F4D
363044BF2F0103FAA
056FCD3FD7013FFD9
07B02E803B031FF07
3CAFC5C073FC1BF00
320040BF5C02F7FE4
363034BFDB041C10A
3E1FFB7F5BFD1802B
2FCFDE811B019806E
337FE33FE7FD9BFF4
0C5FCDBF88FCD8081
0ACFBD40BA00FBEE7
375047BF40FEB7FB7
0A40433FD1FC78053
3AF0487FDD0057F6E
2F4003401AFDC806C
08CFD3BFF6FE740AC
3E803DC01B04700DF
02F00D3F41029004F
2DAFC27FBCFC4BEE0
39AFFB7F1E032C052
316FE5BF81FF9FF96
394FFE3FE0FC2402C
399005811903CBF71
10D011BFD9FBFBFB0
04FFD48015FD1FF18
039000FF7FFE7C119
07D019C092FF4BFF7
05502ABFCE0377F88
10303140F5022810C
30BFC57FACFC63FC1
0D0FCE00650363F4D
337FDFC065010409D
05D02B8056FED3EFD
33A016BF0BFBB7F2F
11903B405CFB8FF98
3E4036C0F9FF180AB
34D0098109FE23F99
313FC2C08AFED7FFC
370015C0B10183F9F
3EAFBBC0B603B00C5
3D101E400901EFFA2
2EA02800E4FE1BF80
2E602040FF01D80EE
111FD97F30FCD7F4F
37CFD7BF0A00E8029
00A0367F05FBEFF2C
3BA0464104FBC80F5
3F8FF03F5C02A7F91
3DFFE0BF4103DFF9D
0A8007008802040A3
321FF7403300E8084
0F50154055FCBBF7A
3A8FF140DAFC240E9
0060164012FF200DE
073027BFEE01F80E6
074FC63F7FFEA7F5E
10EFD57FD7028FFBA
3EB024800900F4020
00B03B7F5AFBF3FFA
006009C11D02F7FA4
00000C3F9CFE280D2
32EFF73F84FB73FDE
3360298011FEF4089
048FF97F73FDA803B
364FBBC115002FF00
3E1042FF05FCD7EF7
033FD53FD5FBBBFD9
3BFFE50101FF68112
064FC600A201D3FDE
2EB01C3F0600FFEFB
0ED043003B0423EF8
0D6015811DFEC40DA
0D8FBE7F41023403C
0F0FE8C051FE1BF57
3B3037FFF00387F0A
0EA02C3F40FCB80A9
0C703DC07B0153F76
07804880AD02200C1
37BFCE7ED900E80AA
04402F4110006C02D
0450377FAF03000A1
3E500DBEE203940C9
02100A406D03D00C6
3D9038BFC402CC09B
01AFF5BF25FC0C07E
0F7FE4FEDC0364080
3B7FBD7F40FF07FFB
0810177FE1FB97F71
330003801BFBA7FC5
09CFDB7F51FE7BFBC
0D0FDF40ABFC77F82
314048FEE3FF9FFED
0500407F8C00CC0F4
37A018BFA2FD17FD3
004012C039047FF96
30603F404C019BF50
10CFBF80E5018C091
35B038BFF700E3EF1
06600E805A03BC07A
013FEE805DFF3FF38
0A7FD73F1303B4013
11702340DCFBE3F26
369FEE00ECFDA7F8C
03B0340098FC6FF2D
03E03280CD0127F63
09C02AC0A604840BC
0AD03D3FB103E8080
32200E0031032BF1F
082FEFC101FF87F0C
38CFDD3FCEFFCFF96
0C3FF5FF890367FF5
099FC50030FE7411F
01000E40160193F1D
0C8032BF50018807A
025FF4805003B80F7
3C60258016026FED9
349FBABFB9FCBFFC3
3A3FB68097FEB8112
05AFBE003FFC18072
040FF881200217FBC
0AE003C0DDFDB40C9
3FBFBB3F4F049C092
0B5FB7C0BBFC28099
05BFD3BFAF0387F4D
366046FF24043C037
347047BEE5FBDFF83
2E2023C101FFF0062
0CF034C0A00464076
07A03DBFD3041804D
39EFDEC02300880D5
080FDA3FCAFD44043
0E80060118FFD8034
0EE0310083FE8BF33
0010347FD90143F7A
0D0FE7C09C0357F05
07DFF0401803B3F1F
11001180ED0140120
0BBFCEC0A102A3FDB
30A007BF9702A0065
0DA010FF23FF10087
041FC5C0BF038C07D
02C0073FF0023FF14
3D101B0091FBABEDE
3BBFBA3FE1FEBC0FC
3BD033BEFCFC2BFC8
086FB6FEF5FE300F7
07EFFE00CCFFC406C
33EFF680ABFF57F04
31FFC9FFC70073F27
339041811100F3F98
3A00093F8BFE8C0E7
3AAFE140E6031BF3C
30DFB93FA3FEEBF3B
3BDFEA0017023BF29
3450494082FE200E3
088FEB805DFE2FF8E
0E0FEFC040018BFCE
07C042C000043C0EA
10F003BF99FBE7F7C
37B029BFA7032411B
082033810FFC43EE7
352FE4C10900FFF62
11DFCDBEEEFE08045
32E039BFA6FE28067
2F90473FAE010C06E
3EAFEB0000FEE0069
378FCC00D2FC8BF75
083FDEC057FFFBF48
310FC1BFFC049C0B2
2E3FB73FE3006006C
0590413EFFFE6806E
064048C107FD1FF13
079018C03AFEE411A
324FBD00770137F4B
3DC0323F18FDFC0D7
354FF8BFFC029FF49
119FEBC0C9FBD80D5
03FFC33F63FCEC117
3D102E80BD045808A
3BF013C04AFFFFFF7
0DC015C00EFDCC0B5
30AFB87FDEFB8C0F1
38F03600E5FDCBF85
3B00117F70FC57F82
0BC027FF9E0350029
0B7039C0A40233FFC
0D4003804302D4042
0B5FD5FEEEFF30031
3AC016FFBD01D402C
33100AFFB10337F4E
116FE9FFF80383F66
2F30407FAEFBD0022
019FE2406C024BFB1
35EFFCBF02021BEF0
11DFEFC0350043F81
04F0143F5001E8056
0F000F3F84035FEE2
3E2FEEC0DEFB93EDA
3B7FF74010FD4C0D9
326FCA80E8FE5FF30
3C8FF7FF78028BF86
08F00800A7FBB4102
3BBFC47FB6010808E
0CC02BC11EFEF011F
2F0FCF40B200440FB
3F103E40B1FDAFEE7
330FE6007C03DC084
05403940B70267FC9
2DAFD6FF39FB90029
326FE7C0B1FE3BFFD
08303BC06E01B7F28
324FD6BF3E00A7F70
358FE3C0FFFED7FE9
364029806A0283F3F
00DFD2C0510488017
2E5FFF40B0FF6FF71
0810157F600354077
2F4005FFA802700C8
041FF9BEFAFBE00A9
388FB8003A0174023
394FC0FFE3FC07F2F
07B0357FB90437F83
2E80283FEB0104005
34CFCC7F2204000A9
34402080F3FB6BFF0
0D2FD5BEFAFDF7EE4
07201140F3FB7FFD4
0A3FBF40AA0200071
0D1FF18119FEC7F7D
356FF900A2FFD80BA
3DCFBCC0F7045808D
3DDFCFC08F03E7F19
362FFC7F61FCFBFFE
079FD98094FC2FFA8
0CE02DFF49FCF7F4B
07B00CC1090393FB5
2E704500630407FF2
38703B3FA0FFDBF32
0F3FD64124FCF406C
0C3FD97EFCFD13F80
36B0323F8000FBF8F
07600041110037FA5
122FD5FFD901C3FD5
3C90243F3EFC37FE3
1200243F73FCDC06D
0E2FCCBF96FC7407A
32C0257EFD0233F11
379FDAC0D7FE0FF91
360FE6BFA3009806B
03DFE48117FB8410D
37B040408B02FFF0E
3DD01B40A6004407C
124FF4BEF8FBCFEF9
380FF2411CFBEBFFC
01BFE1803EFF63F35
3B702EFF7E0137FF1
32EFEF409900B7F58
0C703180650490036
0C7030411A0364106
2F1011FF77FE500AB
0FEFC6409AFD03F43
35301A7F310264013
35B01C80A7FF9C013
33C043C0F30077EF1
3A4034FF42FD0805A
36903D0121045BF8D
2EAFDDFF08FD44030
30A03AFF2CFCE3F7F
09FFF23F0FFFC3FFE
01B0343F6202FFFE5
391FC2BFFDFE87FFF
0390477F68FBF8094
005011BEDC0107F32
3020067F1CFBF00B9
386FD480C0010C0AC
35A01B0115034402E
32F0037F77FD18117
0BBFDF401DFFDC033
39CFC07F2EFCE3FF3
038FF7C0DE0453F65
2EAFD8FEDC02540E8
32AFE4BF620430027
326FDB010F0243FCB
341FDF407501FFFCD
10AFEA3FC3FBB3FF5
0DB03680580308041
02CFC43FA30283EFD
3330223F49FC37F5C
12004880C8FFB8078
10D028BFBCFD23FC8
084FF1807F046000C
0C0FF20113FCAC0AD
2F9040FF7A03BC0F2
303FE7C0400418101
045037FF400153F9D
39AFE5409B0317F47
378FBC3FDF033BF59
029FE040410253EDA
005FEEBF5CFEDFF62
105FCC00EF0213F86
05FFD68043FE60057
391FE8FF6D01EC11F
319044411002EFEED
053FEF00D3FC17F9E
066029FF0A00140CE
3C1049C106FC9C104
0EBFE4FF61004410C
0B70383FF2008BF27
00F017C045046FF88
2ECFEE7EFCFC900A8
3C200000BDFFE40EC
32AFCC80120213FAE
341FF140FE045FFD4
08EFD8808F022C05A
0BB005C07FFFB408A
2E5FEDBFB4FDAC077
0D703300EA0360089
2F00173FFAFDB0119
356FCE40E103AC05E
37901840CA0327FE6
0E90433F7AFE88109
03903B00D40268003
08EFC97FCDFCD404B
2FD00AC0DFFF880A6
3E0FDDBF81FD980F8
117FDD00B40450095
0D30367FEBFCC8054
106041807CFBD409A
10A0460042FE9C100
10703680DB037FFB6
3DE0193FF303000DA
0780218116FE93F40
30EFBA8109FED00B5
01AFDD7F0701DFF41
3AE0090085FFD7F09
02FFE18107FE2BFC4
33203EC0F6FC500EA
372FE1FF4DFD23FAF
0B7FD1C0CC0318013
3D5FCA7FA2FC4FFD2
0A70410011FD43FB4
3050393F26FFBFFDD
04E004FF7EFF980FE
10BFBBBEF3FD0FEEE
0B903DC10400AC038
35AFE780C60284127
08301C809B00D8065
0620198013FD43F1A
083FE5BF0000BFEE9
010FCD802C03A7F4D
0030137FCEFEB40E1
3F701AC10A03DBEF3
33BFE94074FCEFFC8
0CBFD240020053F72
005FDDFF30041FF43
3B9023C0DF01F409E
3960450017FF6C09D
368FDB3F5F01FC030
3EEFEFC044FBCBFC3
3CEFF8C088FC5FFE3
00B029FF2F0013F2D
364FD87FE904300E9
09D0233F9F0264114
352FE2FFEA00BC07C
398FBA407BFF2BF85
388FD53F900063FAF
11CFF6807FFE2BF85
07DFCD3EEB030C0EA
108FC200A204800B0
09D0394057FFCC0CB
300036C0460377FF1
313FE6BF4A0378106
053FE180E4FE98103
0D9FC74003FBDC0D3
0DAFF73F81FCAFF8F
096038C100FDC8095
38CFDAC05C0167FC1
008FE1406EFC1C079
383FD0FFC1FCE0093
3FD019BF41FF4BFF4
0DB015BF3900EBF6E
33FFCD007D003C072
3D1FDB00B0FEE803D
0890263F250044040
0C0FD14062FF2404D
032035FF10FCBBFB5
34302EFF34FCDC057
3D402C808F01CBFA9
359FD9805900000B0
0D701580DFFC1FFD2
0FDFCC3F89FD7C059
0DDFD1FFDDFC4FFDD
2DC004FF840087F81
04E0083F09FF940E5
32CFD9FF61FD600B2
0ED039008800C3F02
0F900180AD0363FF4
31A033FEF5FB8C060
056FFF7EDD01B4085
31C0323EF1013BFE0
089FE5C022006009E
061FDB7EE3049803B
36203BC0C003B8081
0E4FD1C0D803DC0D9
3640317F39FBE7FD6
3FC002C0160487F58
3B2FE8404D01F8063
3F2035804DFC57FE6
3A5FC43FA50203F3D
3E5FCF40D30337F69
02B01B3F8FFD6BF79
3A1FD480B7FEB7F58
0AAFB73F7803ABFF2
39D02C40B200F7F62
0E6FF600ACFE03F54
000FE83F29FE63FD9
356FF23F24006408F
2DC03440B503200AC
302011FF550043F79
31900C002100EBFF7
01DFC7FF470070081
319017FFCDFF03F69
3E7FED00B8FC200F4
3270273FABFE3C09A
3DBFFA000E01300BF
06FFD7C03A0067FFB
352FE940CFFF2FF67
05BFE7C0CB030406F
2F1029C067FFCFF8A
31CFEC80E2FF37F53
0B8FEA002BFF840D7
00400680210468077
0570163FEFFDD7FBD
3F6FCF0031FBA8121
366032FF6903880E8
2F103CC12101680DA
3DBFEC3F1DFEBC097
06DFCC8043FC200A5
01B0473F0F0103F0D
01BFE9C05C0264091
3DA03C80DAFBD0103
32100EFFC50388125
0C6031809803EFEF5
370FF380AFFCFBF36
09F0103FEDFF37F02
013045803F0498025
0BF02C7EDF03ABF33
05D03340D6FDF408E
05EFEBC02701B411E
048FB88085FE1FF8A
3FB049002300B3F0D
2E401F008BFBA8007
3F2FE0C0B3039BFE3
345FBCC097FDF7FFF
02402A3F5A0114121
2DA04600F803F7FDA
3BAFD87F55FC07F7F
0AE024402C017BF0B
3FDFEAFF130387FDD
2FBFE8BF9D02EBF3C
3DAFE3008DFD2FEFD
059FD180020263F97
04EFD8C0D90157F95
333FF07F7302C8039
3BEFD680D5FC84090
1060373FF4FF1C070
091FF2BF8DFF540D7
336FEF803D0047F05
0410183FB50004071
31E0297F9AFCE8056
3C5FEB7FDEFBABEF6
0E903C3F3103600A3
03F047FF9800F80D0
314031BFB2FD4C11E
02000B811D00E80EC
32C005C0BC01D003E
09F04941250368096
09F002BF70FD87F5F
38E03B0060FE73FEB
3D4025FF2100180AC
0A0FE1FFFB02BBEF4
089FC93F380200093
0920477F5B010FFA3
35EFC140330323EDD
3EAFCABEFBFDB4028
0F7FFFBFCFFCF7FDB
34FFE4C0B00187F75
350FC6409DFC68125
33FFC9FFDFFCF4099
3E2FCF7FEE0287EF7
073FDF7EF8FBDFF43
305FD14010FCA8059
0BDFDC3FA0FEC7F70
32A02240F1FEA7FB9
3A0007404AFE140A0
33502A3F5403DBEF9
007040410200380D5
11200F4097FF1009C
3A90497FF5FE0FFA0
3CC01E3F36FBC805E
3E50067EDEFE98058
358FD53EEC029C014
032FCD8082FF5409B
0DC027BEF6FC47F42
2FF0287EF9FE0810E
019043BFFFFE78105
0C2FCC800E02EC088
307FE4C06EFF3FFF6
3E001F3FFD017007D
384FD040A30144019
0C6000C01DFF7FF17
382FCC7F68034C07A
03F00200D60333EF5
3DFFD1FF74FE17F89
30404300EF00C3F28
0E10030038FD180BC
3D8FDE3F830140070
2FFFDAFF38FE4FF6B
2EAFC13F9CFC4C08C
3F400BC09B01C4108
3FCFEC804AFF53F22
01103A405302740FE
0CC0393F9901DBEFC
0360284126FDCFEE0
324033404A00EC126
35DFECC035FFAFF5D
32DFD1BF3003EFFD2
04E0027F2A04940BE
0CBFB6BEE502A3FD8
0D4FE5FF80FF4406D
355FD3FEDBFE340D9
018FB8FFA300FFF27
372FD5806A00D3FB1
2F101B80C0FBABF14
366FC100F70193F90
3B403CFF2FFB7C0F5
061014BEECFD480F7
0E9FD1003A015C006
0FCFCC0117FFA40D9
2F9FE6FF6AFC93F5C
3CE00A8063FEDBF41
33BFE8FEED0368019
09703F004F02A3FB2
343048FF5F020C06E
09EFC93FCC03D803F
05C0393F9FFD57F2F
367037411B04680CB
0C7FEF8045FCBC0EA
051047FF750360028
00AFBE8076007BED9
302FC9BF5501F810F
0F4FE77FE6FED80BC
0EAFE0804700EFFCC
399023C006FD2009D
04AFE180E100BBF09
3C9042400DFD53EFF
35F017C00301DC091
38FFF63F92043FF12
03C01D00CF02EC11B
055FFBC0B3FDF803D
3FAFEB7F39FDCC046
0CF033C01300D80C9
31BFE63F6F03FFF0B
0FB00B404F0387F79
30603C801CFEDBFE7
0F9015BF2A017C101
3AA01DC0E903980CA
0B8FF9401201B7FAC
3640197F22035C0FB
028FD77EF1FD50075
008FCF00D00267FF8
03E031C05402AC0F1
0CDFDCBEF60140067
0DEFE8C001FEA40F4
034042003BFC100EC
3820243FF7FFC7F22
34FFD580DBFF7C126
38702BBEF5FD73FED
03D0108001043BF6B
08FFD840D300B7FF2
026FD8C116FC5C013
30E0287F36FC27F11
36EFC17F7DFCE3EDB
36102880DDFCA8063
2DCFDDFFF70203EED
09EFF1BFE2FF6C0E7
30802B409CFCFC020
3E902300F8FF2FFC6
0A200940CCFBB7EE3
116FC2BF26FF37F3B
3C1FCF3F09FF64086
016FF17F59FDCBF97
3AA0157F51FF77EF8
0BFFC7807CFF9BF15
00A006806F02A0109
00FFCE010D0440058
072FDD40CBFF6405B
0A701600A200D0039
30AFBDBF9D011BF3F
07C048407FFEC4008
2DE040809900EFF96
2E8008FFFBFB9BFD9
310FDAC07AFBB3FDE
39702D80CAFF600BC
357FC77F18FF47FD8
3AD0064036FE7BF38
0F80037FC4FDDBFE6
37302FBFEB00D7F52
393FC2BF25FC3004F
3C2FD97F8E0180105
34AFEEBEF6013C00E
3470213FF90293F80
399FC5BF85FE4BF18
31AFD5C084FD3C028
33603A0006FB93FF9
308FB740D900A80E8
02000D0039FDC7FB7
017FEBC10602740D5
04FFD8C09201D8026
368FE7BF57FFDBF99
37C03A3F62FBABFF3
3C900F3F0A0320070
10601FC0D30028024
01A00F4054FC57FCE
30CFDCFF49FD88120
11C01CFFBFFCFFFD2
0EF017FEE7FC6FFBB
309FE04056FD3801B
04AFEB8063038BFA0
022FCF804EFDD7EDA
0F70284117FC20084
31E041C01CFC90109
118FB78123024C08D
0D2009805A0473EE4
3B0013FFF6FD400FC
2F9020BEFE019FF74
0610473FD7023FF6B
33402E7F85013C069
3060278029FEDFFA8
3EC0123FF700780BD
3810270123028FF6D
31101400A60347F34
3F703CFF76FD33EF2
2F903C3FBCFE040B2
37503E3F9B03D004E
09CFD4BF9C034FF8C
3C1FBF00D9FF27EDB
2FF005BFE1FC43F31
10A00F3EE2FEB7F53
0A601A3FF5FDABEF9
0DB03FFEEBFD740D6
05F02200C40458113
0B3FD2C039FEA7F1F
0DFFFBBEE6FC73FD5
340FD280C3FDF7F31
11F02280D0014C02D
30C0013F3E00F8075
2EDFFBC03AFFDBFBD
03D0493F36FE84114
359030BF61FEDC04F
2EDFE1403E0053F45
075FBB7F480233FF3
0D7FFC00C60038085
2DEFC7409B038C060
3F4029FFA70164082
0E803FC0EB0007F1D
067032BF90FD3C0B8
05A02A80260058121
2F8FB97F96FBCBF81
010FD6FFA6FC00124
39F00EC0E6FE0C11D
010017809900CBF59
37FFE440CFFCD00AC
0F3FF9C03D018BF6E
0A70443FDD0193F30
06FFC9003C04740B1
07CFBC7F0CFEBC068
0D902B410300A7EF2
2E8FC240C20373FBF
3F401EFF7E0383F60
38703E00E8006BEE6
3F6FDB409E012C0A9
3DB01E7FC004900C3
3F5FF240EB015C0FD
0BFFC27F1502A3F32
36B045000E027C07E
100FED3F85FD08111
01B02B00670354071
05C048FF0CFCB8067
3BF01AFFCA02F001B
305006000DFF6FFF6
3080433F700033F3F
3DE026C0F9FFDC0FF
0A70188024FCE80B4
330FC2008E008800E
0D8FF0FF99001C0F7
365FF580380013EE2
2E7FD440600113EED
0E4046009FFE6FF02
38902ABFB4FC83FFE
38B0017F5602000F4
3F20010080045BF7A
07BFEC00F20223F1D
30E0130019FF2C00A
3FA032C0C5FBD7FFD
38AFF2BF450190018
0BDFB9BFEAFB9FFBA
0A9FC280E1027BF78
3860123FA302D4039
3BDFE5FFEC0243FD6
3D20403FBB03DC0CF
10B01840F5FE43F22
372FD880ED0048013
0D902FC012015BF94
09902EC079FC50079
054FDF003702D3FBF
10D024FF95031C06C
3D2FE700E4FF0BF9D
09A02F3FFCFD740DD
0C5FF0BF14FD3410E
0D6046BEEDFF1FF70
38C007C0FC02100B3
3750277FFFFBEBFC3
114FD7BFD002080AE
11AFCD3F2D02E7FD4
35F00CFEDFFE3011E
31C00D3FF8FCEBF7E
05F0097F61FD8805E
3B2FB9BF0B00200BC
2FAFC400B3FFC00ED
06AFC2C046032C01A
2DF004C116FBF7FFA
0DA019FFEDFDC8031
11CFDDBFEFFB83EF6
0F6043FF8DFD03FFE
35FFC13EF5FF5C0EB
35D030FF9DFDF4060
2F3FF7010BFF73FF3
0E10143F6C02B4042
39C01C3FA804680A2
0E8FB6FFB7048402B
361FD40059FD57FA1
09102900B800880FD
0E101BBF35009FFBD
3DAFF77F6C00B40FC
0F302EBF44FFA005F
3FDFEAC021FE30003
0F303EFFEEFF73FBB
3BF008BF48FE38104
04104000690170117
3EF00FC040FF880F5
06EFC2C0AAFD13FBE
2D900DC07C03F8064
39E028802A0197FF2
10FFE53FD503C3FF4
05E04840CBFE58123
3BA01F8071FFE805C
314FF7803000A3F99
35B01D3F9601DBF47
363FF0C0B80484032
398021C10DFF33F94
0E1023806DFCDC067
35C0437F9103E0045
03EFDD008A0140111
393FD880F601CFFBB
2FD0263F2DFE9406F
0B9FCC0063005401E
32D018401AFCB806D
0D30243F54034805C
030FC4002AFD5810C
07202EBEEDFFFBF78
2E200A80F9FC9BF90
323011C014FF9BEDA
31F0128004FFA8032
396FFA409A01D8024
2F2028808CFCEFED9
0A200A80D50077F82
2ECFC1C10EFF500FD
2DD009FFFE0477FBE
3E400CC047FB900FC
091FE27FCC02C4029
3F90083EF10054110
329FC6BFB6023BF11
086026FF1A00F4109
0B70124028FDFC097
35E037BEFA03E3F37
12103D410B04640E0
036FC13F80FEA3FC6
082FBA807303B3FB0
31701C3FDBFCA00A3
0860084073FC3C080
0FBFBB00C0FCF00A7
343FFD8087FCD8052
2F8FC5003801FFF58
3BC00480C0FC44084
3B40183FCDFFF3F2A
2DBFC4809FFC4810E
0CF03D40CEFF53EEC
059FED3F08009FF43
05EFF4C0BE039C0D1
0A4FB93F66FF57FFB
09301E7F220323FF9
36A001009D0163FDB
00D018C0E8FD17F91
0BA01C810BFD63F63
394FBF0121FEC005A
08F003BFE003A7FDF
050FC4FF8FFC1C0D6
0000183FE3FFC80E1
2EB03B7F92FDE4050
029FD93F1BFEA0026
3DCFDF4122016BF6D
010FCE0027044FFA5
110FF53F26FDB3F1E
0A9FE540DA004BF87
39D03240CD01E3F5B
052FB77FC2014FF5B
0AC03500AEFF07F20
0C4FE7C0930473F17
04AFD47FA90103FC7
2E7FFFBF5A005C0A0
340030BFCF02B3F26
01EFE9C0D6FF17F19
31B043FEE0FD2C038
0A4FE5802CFE9FF17
0A5FF740B5FFF3F98
0D1FF8FFC8FC600E0
3BBFD3C0B302740CC
09301A0090FBC811D
3030357FBEFFF3F1E
380013BF5E0244057
2DFFF87EFE0407F86
3AD02F40A200AC05F
115FFC7F5801B811D
06E0288065027FF3D
3C303CBF5D01FFF46
0630427FB4FF87F6A
328FB97FF80333FD5
09E032FFAB0017EE6
00BFE73F21012BFF6
372FC6C118014000B
337FFB7FF0FC1810A
0BEFF7005A0488085
0DC0423F5B0410081
33402EBF10FBF806D
0C40363FF302D3EE6
384FCA80A30213FF1
04702B8124FD68080
39903E3FFFFCD8002
079FDE406E02BC0E7
026FFFBF030267F6C
0B7FBDFFEB04000E7
30E001BFE0FF540BC
39DFE53FC601FFFB5
368FE97F10FD63FAE
31DFC6C06AFE480C5
0E1FC0BF1EFEC407D
0790027F68FC3BFC3
3E4FF7C0AC023FFAB
35F01FC08EFC44078
0300487F27FF48012
01BFF4801FFF23FDB
3460358098FBDBF3D
2FDFE5006E03CC0F8
092FB9FF7FFBFBEF6
0A1021010AFDEC11C
37E028FF94043C0DA
3FF0000105FDB3F5B
37B03580EFFD78038
08EFD77EE603F401F
0E6FFA402901C408B
2D9FC0807201AC053
02EFD24059015BF3E
31E0423EDC02ABF80
0C900A8037FFAFFBC
106FFBC0E100CBF0A
37DFEA7F24006FF83
033037409E03CFEED
11D01AC00103100B0
0320337F1E00D3F03
343FDEFFBD01E4003
100FF8BFFAFC3FF81
0A60134117FBE008E
3D3FD03F58FF03EE1
2DBFFE7EFEFE77FF6
04702540ACFD17F2E
379FE8406901BC07D
0EAFC2408EFDE7F51
2DA0180051FF20055
2F0FFA80B9FD4BF22
0D4FF03F2501FC126
053FDC80BDFD27F7A
0E000EBFF0FC600E2
07903F7FE8FB90022
1150078090FC3C07E
0BA022BF28012C126
3CEFDC3F7BFCC80EA
0B6FBAFEE80187F71
351FE87F7C0404056
032018C0F3FCD409B
2EFFFB410B016C082
3B500F80E0FDE3F36
11EFE680040453EE2
09903D7F30FD67F60
3FBFC980D3FE63FD9
0C10140049FCC00FA
0A7FEA3FF503840DF
2DE02A010BFED0095
3DE002C025020001F
02EFDBC03CFE8406F
0F7FC2FF68FCBC010
08EFFAFF15046805E
00DFEEC07701B0075
00F02ABF25FCC805A
11803FBEDD01E7EE7
0B4FFABF6AFECFF9F
36EFEB3F4FFC1FF36
34DFF1C03A019009F
071FDA3FDE041C0E6
0DE026BFEA031005E
33002780FDFD9C0D3
012FD13F6FFC940D8
3B8FE4FF5A033BF39
3E9FFFFFEC00DFF4D
31503B7F96FD97FD1
03E0227F88FD0800E
0AA01B409502DC09D
018FC3803DFEF7FE6
39E01CFF41FF88080
065FC5BF950007EED
0F8FECBF43038FF04
3CAFF6C07B00EBF16
32D03C7FDD0053F22
11FFD33F6A01E00F6
004001C0C7FFBBF87
306048C0B301EFFEE
386FFA4083FCD00DF
3EE003FFA103FC033
3DAFD4C0EE017006A
03FFBB401BFC94022
0B3FE8408F012C008
37F02B7FE6FC9807D
119FF57F98FE73EF2
2DBFCC7F0004540C1
06D0427F82FDC8019
3C1012C0B9FC64011
0FFFDEFF060487F07
31FFC9FFE1FCDFFA0
06D02200FF0123EEA
02D0183F0803AC02A
044FC700D600AFED9
327039C0EC0207FBC
0CE002BFBBFF58095
04102D3F16FC6C0FE
3B6FE57F8200BBFC3
09EFCDBEFC044C0A9
35A014FFBA013807E
2EF01FC0F6FEA4011
2EEFDE80D2FE8FF01
30B028BFC402E3F37
34AFFC810BFD23F75
36CFF93F9AFDABF16
05200C0120019BFDD
0ABFC000DDFDE0066
0FAFEBC0ABFF63F02
3D8FFB7FD5FDC7F0E
043FCDBFCEFE9FFCA
0B602880D903BFEE8
119FEF80770108116
359FD93F29004BF0C
3AAFEFC0DC02C00DD
02FFDCFEE2FCE006A
3F2FFD3F80FE5C09B
0A503300D0FFC0038
33DFDC3FEFFFCC03D
102003004101F00F0
30801CFF6001CBFF4
0B602D3F9F00EFFFB
09501E00A5FC3009A
3690070120FE58030
05B022BFC0047BFE6
3ED031BEF7FEB7F9D
325036FEEE03000EB
010FEE3FCFFF5C05F
047025800801680D5
11EFE9C0B9046C014
09E0257F22FED3F67
311012FF31FD47FA2
310014BFDAFCFBFF6
04E01BC11C0483FD6
01201EBF8BFF63EE9
05D008FFE8FBC000C
0F60423F7D0293F6B
0D200440AD0147ED9
048028FFD0010C007
040FC17F1C02080A1
01001F0077040008D
0DCFD2BF140314108
0A9FF07F75FEC8023
386FC63EEDFC04125
108FCFC0F200640EE
369003C06B0367F5D
320FE6400BFD08029
35603C40DB04700E8
342006805A02C404E
33DFEA80BA010810F
04FFC9BF6D03240E5
066FF63FC803B3FA1
3E60207FDE01800D5
051FCDFF9703A00D1
2EDFDD3F950067F00
3B5022C06BFD50084
016FC93F2EFD13F7E
0F702F3F1E03FBFB1
01704640110213FF3
34C01680D6FE57FA3
069FBA7FB4006BF2D
3A501680D8FC3FFB4
06F03AFFE7FC43F19
12303240F5FE9802E
32204600990220095
072FD34105FF080AF
2E8FDF40ECFEF0017
10BFD000F7FF07FFB
342015404CFBDFFD5
392FEA00B102240AF
03F005FF6A0174008
318FEF8113FECC10E
0A3037FF8CFFDBFD1
2D9FF37F4200A006F
3C604780C70220062
394FCEC05BFF8BFC6
3FCFE3C0CB03BC07B
30AFB9BF27046BFC4
2E700B7FF102F8097
072FE380C903C3F0B
0A70188094FE2BF2C
3810060124FF5FF2B
084048FF8E02DFF43
3A80144081FFE80F4
01803480E902EFEFF
3EAFE33F80FE3C032
3FCFE77F3A00DBFE8
11EFBE00E00024097
118022BFF202D7FAF
305FBC00D9FF7410E
03302E0082FBE4111
34BFD4BF2BFC5BF4D
369FDD402404740E5
38FFE5FFC9FE8BEDE
1250123FBCFD04015
0F40373FB20038060
347FF30064FFB7FC5
30B000FFB1FF3BF60
34C0387F37FC6FEF3
04A02AC0CE0013FD0
3DDFEF8053013C097
2E8FBFC00A024806C
094040410BFE83FB8
10A02B7FABFEBBF9A
00CFD64041FD880A4
3B002FFFEA036006F
0B402BFED9FD37F62
02A02DC02AFF70077
076FF8BFBD0053EE3
0E8FB77F5CFE07F4D
081FB97FF3FBC00D1
3E0033C03FFF3BFFB
34A0043F7D03E80A5
0ACFC740C0FC03F2D
363FD4FF32FE9C0BA
01C00CC049FCF40AB
0E301BFF9800E3FA9
0D8FBABFA7FF14067
0C501D00FEFD980E4
0C6FFCC095007C117
34AFBCBFEB020807D
2EA0454117FC40060
34F030BEE5007407D
0D2FD9BFB5FCF401C
07A02080FD0007F42
01A02A011CFC600C1
00F009FFCF002BF80
3E3FDFC0530053FC3
2FB015FFC6026FF91
376FE93F2800F7F47
097FCE0035FF67EDF
12100F3FA4FEBC0A4
2E700C8008FDFBF38
3AF026006AFD400B2
0BD032FF84024BEE9
0A1048C05D000FF0C
0E901E8043FDA3FE2
3530074006FBB00C6
2F8FBBFF92004FF9D
0EDFF47F2301AC066
082FCD3FB901340FA
30A02A00EC0457FD9
35600E3ED900E7FD6
2D9FC3BF3E00CC112
3B300D8125FE33FDD
0FA002C0C7002FF1F
0FE0473F1200840DF
0E3015FFFE00F4042
0BFFE5BFCAFD8BF57
2DE0077EE0FB8BFB8
3E7012408FFC13EF8
05703ABF02FE540FD
0DD047C032FD5BEDE
0540107F83FFD3F26
0A6FF180ABFBC406B
31001B3F21FDD4069
38BFC63F6A0477F1D
38C036C0FD03EC09D
0D602C80DE01140FB
0E6FBCFF3DFFD0076
395FEFFF15FF2809F
3C4FE23F0FFDD7F08
03AFE400DDFD5BEDF
2FDFCB7F420397FDF
3E1032002AFCD00C3
36A006FFF8027FF66
3BAFBCFF76FE00053
378FC14030FF70126
122000810D02E3F03
340FFABFF0FEB007A
33DFEAC0AEFD03FFF
0C3011807F0334121
3F5FF900880473F47
3E902F3F29FB83F83
02100F004BFCD7FCF
322FF0FF7000E8126
3C300340E8FCCC094
0E1FCF3FAD024007A
0360473F3EFEB4068
2DD0134045FC0C0B6
1020337F2EFD1C001
0D1FD0FF5AFE98071
062026C01BFC5C01D
11B049C00BFBB40A0
0C40227FC5FDF7EEA
38F01A3FCAFF47FB7
01D0248084011FF7B
2ECFFB8041021BF63
08FFBDC0E0034BEFE
3690210077FF3C021
0ECFE8C09D0118091
0D5FD200ECFFCBF37
0F9FD98097FEB3FC4
395FC3FF6CFF6BFD4
108FE2BEF0041FF7E
09801800BA0097FF0
02A02ABFD303B0003
045FE8804301A400C
0BAFE9C011FF3005E
2EA0433EE100C3FC7
3F5024003EFCDFF37
08900A809DFE4C0F5
0F8010001C031003F
080FC10116FE740D1
0F8FB7C084039FFB6
31D03B007C019C069
0DAFD83EFC022405D
30AFBF4047FC63FF6
08A04000D4FCF00D5
09403FBF04FB8405D
37BFBBFFA7FF44068
2F602040FEFD5C089
08FFCC411F03F4083
3EA03EBF8C0027FCD
3FCFCBBEF8FFDFEF7
31DFC13F53FBA810F
2DC01EBF0D0287F95
3ACFC240D804400E4
3B9FC2BEF1FEEFF34
018FC3FF89FB8FFB4
00FFD33FF200300DD
0E1FE98042FD540A9
0F1FD6FF6EFDD407D
314040406F03FBF58
2F302EFF62039FF5A
0E4FFAFF9F0377FA6
0A702940E2026BF40
0DEFC4410DFDBFF8D
0D4FC14109FD37F80
305FD9C0C0FF13FF0
35701BBF0BFDB00BB
345037804502F800F
0FF01040FDFD6C104
00E03E7F6EFB640E6
0ABFB9C05F01F80EF
31E00A00E6FFABED9
11C048FF740490034
0E8FDAC0D40297F1F
0CCFDDFFAEFFA4062
108FDB3FE604300BC
2F0FDF806800A7F4C
307045BF52FEA807B
092014C06DFDC3EDA
34E01580EEFCCFF08
3DAFDF8107FDE7FE0
076FDDBF30FD63F8E
09E042807C0443F97
04302500D7009BFDE
0D1FC53F5DFE78036
39C02BFFCFFF1803E
087FC900F6FC4C08F
2E8FE27F7F046BF7D
044FBB7F99024BF3E
064FEC7F51FFF3F33
39DFF50006FD3BFFA
33C00F7FAFFD9FEFF
33D00CFFAA0403F82
3F3FBC40FE03CFF71
3B903FBF17FB7004C
317FCB804A03E0023
08003F010D047FF85
061FC0C0E302A00D2
0EC02ABFCEFF8809E
00F046C02DFC4C0D2
3DD00DFFA502B8055
0ECFF07EECFDC80BC
392030408B02180F4
031FBA40320400011
37302281250453FE9
3C3FF93EFA01240A4
3DE0347FBE046BFD2
02103E3EED010BF8D
32EFC3010603D004D
0BC0087EE1FF8C06E
3D70427F16FF73FA9
368FCE7F5FFDE80F1
10BFC4BF46FD300E2
369FE6FF4103C0077
3C0FE740300330031
02300DBF6A02CFFBB
3F9FB8407D0037F2B
1020157F0500540B5
09102EBF2BFDBBFC9
0A6039405EFF1FFE4
38CFE080C2FDB80E9
079FFDFF18FBB40AD
34C03EC047018003B
3E7FEB3F5803CC044
0A2FECFF69FF7BFE2
06102B00EAFBE4004
01CFD480C80294017
32902A3F2DFC53F1F
3FFFFC010AFE7403F
00802DC01CFE9C019
0ABFD27F86FB680BA
0E2034C094032007A
3F9FC8FF40FE00000
0BDFC3405D02A40CD
01D01B00DE0177EDA
3A00018055045BF31
05003D3FC202E3F02
3BB0207F89FF240EE
02EFD5C09E006BEF4
124FE4FF68FD90090
389FB7C07B01BFF0A
3F9FD5FF0E049BF74
3FF002802C022BFCD
06B03D40700360007
0AF0333FDE03A3FEE
07103A00EDFFE7F72
3CD021C05102F4049
022FD53F06FBF806B
080FF23FD5FC17F07
0070097F6B01D4086
34900E7FDFFF880C1
0E401F3FD0FF0FEE0
3E3FD100A600D40E9
339FE2C0F1FB90080
3D902AC09BFDA00ED
0DB043805FFCA3FE8
091FCA80DEFE0FFFA
0020223F51FC90014
0240173FD7FC3BFB6
025FF03FFE023BFBB
0B30447F20FFE80EB
332FE5C10100BBFB7
0A2000C0EB0144081
01F0153F39FCCC118
0330083FD5032FFE4
0D1012BF0D0344053
3F602E00A6FF23EE3
01B03F3FAB035C0C6
0F001B7EE3FE800D1
0C4FEE7F0B024C0D3
38CFD63FE2FE040A9
2DE00080C0FD9006E
372FE53FD604800E3
044FFCFF66FED3FC2
08DFEB3EFB038C05D
041FEABF8403F411F
35F00A8044FD8C09E
3F2FD60002FEC7EFC
017015C00001840A3
375FDF4031FCB7FF4
053FC80125FE84024
025FC4BFA00153F55
370FE7FFC0012C01E
0490403FD0FBB80E8
09DFC47EDE0430117
372FBEC02E017C082
02100A3F0302DBF58
330FE7BFC0000FF62
0B8FCB3F75FDA3F31
062FD2401F01A7F3F
395010BF3802A7F90
0060393F99FCBFF7E
02DFF2BF54FD57EFF
30D01B410203C7ED9
3D502C3F0B00D006B
385011BF0EFCB7F78
3E0FF17FB5FDF3F58
04DFD0C0B0FCA7FF2
389FF03F1402600CE
37DFFCFFECFE340FB
36F03C7F990237FFD
04700F408D0488018
3F0034BF27FBC7F54
110044BFAAFE0BF99
02001FC0B501CBF4F
0ABFEFFFCD01480B4
0EDFE1FEFBFC940DE
009FC080FD02D4085
054FB93FDA03640FD
085FFCBFA2FC5FFDE
309002FFA5FDE80C2
303016400A025805E
014FC53F1701AFFBB
0B902E3EE302040D0
01802A7FE90073FE2
2ED015C0A2FCB00D8
319FF67F6C0488087
3F6FB83F9500EBFFF
05AFEF4087FE0BF0D
095FDDC03400140D0
2E701000D002BBF14
392FBE00FD02A4088
0C0010C06B0128000
0FBFD080FDFDE8114
379FF14051FB940C9
0220203F84037FF76
062FCF7F75FF94003
08EFF5FF0C0154013
3CB02E80350120062
35F03C002DFBE40E8
0DFFBAC059FC6C085
34101D8020FD77F47
120FDD7F14FDC40CA
303FD37FFAFCEC121
02FFF17F6E01D3F17
3F100A7F84FEDFF13
38903C805F03EFEF8
2DAFD13F2BFDE00CB
04401F7F05049BF23
0FE00AFEE40207FED
0AEFC60047009FFE0
36401D007EFEA8047
12302EC126FDC7F73
2E9FDEC106FF7BF76
31103B010EFE8BF12
2E402D8126000C012
032FCE7F76FEB8052
35F041003DFC880C3
32DFF000E2FFD4121
03A0293F18FE90036
07B02C811902EBFED
3F2FE9C063035C09E
082FCDFEF7FC13F11
386002803802BFF5E
3BDFBD3FE803C7FEA
0A1023FF0F0000125
367FD2FF88044408D
09E002FF19FF14059
031FD8FFFD01EBEE0
01200E3F2F00D00AC
01BFC0C0FEFD83EDE
0DD03E7EE0032010C
39F008FFEB01E7F8E
03F0428072FBEC0ED
0A0FDFFF1502D8045
0CDFFCBF0D00DBF7C
0B901DBF9AFFF000A
0ACFD70120FBA7FC4
37001000FEFC4FF85
3AEFC5805BFD2C033
09FFD0BEE701BFEE1
318FDDC06503D3FBC
06AFC38087FFFC05B
327009BEF3010BFBB
3770237F78FEFBF3C
026FF240B60110018
12601EC0F70193F81
01C02EC079FD7BFB0
013FE0C0EAFF1FFA3
03F041FFBA02F806E
33BFCA7F6400C7F8F
08C00A40C8FD400CA
3EF000FFED046401F
3B3038BEFD02C4104
363FF97F4D001FF1C
363FBA7EDA02CBF22
0210433FCBFED7FFB
0B8022BF0CFE38022
2EB01AFF67FC2C0AC
0A4FDC801FFCE8037
10404800DCFE3FF81
092FE03FF803F4044
359035C023FF0C009
01802A00BC008BFEA
09803A3FE1FC33F47
3BC019C05E03B3F2E
019FD9C0DE02A0113
083020FFB8029FF73
3B0FF0FF6300B3F22
0F4FBF4106FE88083
2FA03EFFC6FC68076
000FD5C0C701C0113
34903CC0D302BBF3E
2E4FD64006FC9809E
04CFC000B1FF680C7
03CFED3EFFFBA004F
3C7FE1BF39034801C
302FC73F36023FEE5
3D1FF8009203700E8
0EDFE7FF74FB9C0FF
3AA04680D801D7F18
34EFBCBF5101D8118
2F50093F38FFAC045
39AFFD3F25FBD0025
05C022FFD603CC032
0CF03CBF5CFDFBFCB
0610198051FFCC0C6
352FC780CCFCDC047
3B5FF87FCC0093F6B
3DF02B7F87FC03FB9
0FEFC63EE5FF2C0AE
0CC040C0F3FF18044
3BE0387F01FED80C2
048FC17F3BFBB7FF6
2E8FB8FEF5012FF53
312FC040F4FE280CA
1170247F370474073
08C02AFF20FFC7F9D
3070057EE6FC60033
10503ABFA102D7FDC
3F601D00360340051
0B9FE27FCA049404F
3E1FCFBF0FFFEBF29
0C0FB9C10EFE9810D
3320177F57FFE4013
2F7FC0FF6AFFCBFE1
2EEFE6BFD0011FF83
0F800DBF73FC8C0E1
32CFBABF1701F4104
38BFFB7FAB045BFBA
0C500000EBFF03F1D
358FCB7FBE02EBFFC
2E4FDCBFEFFF5C0B3
2F6008FF1B00E0050
38A015BFC400A8014
0ECFCBC0DE01400DF
32FFBF80D301ABEE8
011FCC7F96FEEFF26
3C2FEF3F41015BFFE
3CCFE9C0C500E3FE1
0E2FFDFF35009001D
32DFC50095037BEF2
3A3FEBC0E1037FF72
0DE01EFFC502B0023
34AFCA7F36FBAFEEE
01702600B8FF6C0B6
2E9FE4FFCFFBD3F01
055FFB80BD01BC0AE
317FF93FC0FCF7F7A
0D2FFB40A5001C07F
30C0424013FE28079
031FE17FC7FCDBF9C
36E00D01000263F62
35203F3F01047FEEB
006FE800C5FCE7FC2
37200340EE022C0AE
36B0220029030C083
0AEFD90063036FF86
30EFF6809A01D4001
07AFC23EE5FCAFFA0
3CBFF2C124FEF8021
317FE0005C02AFF5A
007007BFB6FD37EFC
3D7FCDFF4FFD780A4
3F1FD180FBFCAC001
3DFFCB0075FEDC113
308FE100AEFEE3FEC
32AFE1C0CF0467FC9
3A7FC0BEE8FF08045
0A70498022FE0BFD2
0ABFF84012FDA4039
036048FF53018FFFE
0D2FF1BF4CFF4BEDF
333FD77FA6FE27EE5
339014C006FE03FA9
3680223F96FBD407D
0B7FED4056FC03F17
037FF60084FD7FFB9
0EDFD940FEFDA3EE8
00502900A5FBA3F89
31E0113F12FE6FF90
3080447F580434077
354FE9FFD5FD100FA
3C9FB68077FE8C0C3
356FCB40D7FE3004E
0B7018BF9DFD1801C
117FE57FCE047C03D
34FFEAFF65007408A
09FFEAFFBEFD68059
092FEC808B0127FEE
0D4024C031FBA0025
04203ABFF4022006B
3DC0313FAFFCCFF92
375FDE80AEFD6C0AB
0D50287F23FD8408E
08903E3FF3FC2FF30
2F2FB6FF77FE58069
3C00013EF7021C00D
36CFDA3F9102B0008
352FE440D6033C054
0B7FBF3F04FF540AC
0EE01BC0E2FE37FC2
0D603D00F702800AB
3BE017812102DFF7F
3C803BFF58FC4C07B
009FFE7FE1FFEC031
00401C81110057EFC
373FC3C0320047F79
0C3018FF8C0093FC8
3E9FC47F40021BF58
03303D8062FD2FFA0
35FFB6BFDCFEAFF25
07FFD0BF9DFECFFF0
2F003B80E4FE480E6
047028C01AFFA7F9A
05F0377F37049BEF4
0FBFC6C0DCFC3C0CF
024040FF50FFEC088
373001C0780077EDB
06EFB880BBFFFBFD4
0600253FE0FF980CF
3C102740FEFDBBF82
10D043C041042C090
30AFE8811D0027F13
38500AC020FDE8060
3D9FC980DDFCE7FD8
0F3FEF3F7AFF67FDD
0E5034000802640AB
0AAFF87F86FBCFFC0
346FE3BFA2FDBBF00
092008807E02580EF
01AFCBBFEA0273FA4
0A4FFCC10BFD94100
325034C068033800F
10BFD37F8DFBA3F02
38300FC098033BF10
2F6FE4BF7801E4089
2DD043411DFFE40D0
118FC3C03FFF500E5
08DFB6FF56047FEE7
00C0014109FE08058
01D0224084FC63F1B
3CCFC3FF72FD63FA9
1270334030FC6C0CB
07E0283EF1FCF8021
2FEFDD4110FF43FC2
06903DBFABFE000DD
3720087FF501D0056
37F013FF63FC4C126
01E018FF83FD5BF2C
0A0FEE7F8301B3FE1
2FAFEB4121031C0B5
0FA017005BFFFFF53
335FDD7EFDFF880C2
379048BF9CFBAFF2C
36E0367F9C01F40A6
0D3FC8BFB8FF47F08
3C902DBF2F00EBFD8
0A5016BEE10413EDE
3D900CFF170354006
3EC0143FF300180D2
3BD04300ECFB64119
0C3FCEFFE30214069
3FE017C09E009FF0E
07603E3F54FE8FEE2
056FFE7F4A045805C
3E9FBEC01CFFC810D
0FE03C40310233EED
319FD1FFA9014802B
10BFCC0042FF1803C
33BFBC006A0187F90
3210223FBA01CBF92
0680297F00014FF08
35CFD8FF65FB68025
33D01FC0DC011C0CB
05101A4109038008E
0A1FE440DF01E402B
10CFFCFFBCFBA0115
0EA022C0440257FE1
309FD38101FF67FED
08CFF6BF350003F45
0B1014BEE1FFCBF06
3D6005BFF3FE47FFF
068007C09301CBF12
33FFF07EDA044BEF4
03EFDFFF620437F3A
0930294113FF9BFFF
023FFF0062FE0BF13
018FE5FFAC0303F5A
057FDD3FF701F3F28
3D00137FA6FF1FF14
08D0124009FC1BFF6
000FCB3F84FF37EE9
323FD30069FE13FAE
389032C0830078042
3E0FD3FEFC03FBF04
0FC0218021FCBC009
0DDFE44062041BFD2
0CE0183FE203A00E1
0E1FE6807A01B4052
3B102B4086FCFFFC4
38AFD0FF1CFC0BEE1
311007FF54FD17FE8
03803DFF64FEFBFD0
0D2FC23F7DFD3BF07
1040150039FD13F6D
2F704900C0FEC7F8B
00100D00A20317F74
094FBC00320053F49
0C7FFE0127FC980A2
390FB93F2E007BEED
05FFF3FF1601E40A0
07B020BFC501EBF46
094FBB40C2FED3F82
3A60033FC1FF88032
341FBAFF80FF8001A
34AFF64028FC73F7B
0D40078035043BF3E
35003700D600B7EFE
04B01B80D7049C0EE
01B019FF5CFBF3F16
3CB03CC050FFAFF61
38D014C0B6FFF3F0E
03DFEF403EFF13F46
0EA04500F0035FFD3
31BFB63F1BFF94049
0510113FA8FBCFFE8
307007411BFE24042
040FE43F1501E3FAA
36F0273F7A00A7F77
3C00397F4DFD1C0A6
3960007FC8012FF62
360FD0C0FF03F3F91
367FE6BFFB026006E
35DFE4FFAC038C075
3DBFEDBFD2034808A
35002A80D3FB77F76
0BB008BFB001200D1
125FC33F6801200CA
0BE0437F420377F01
36F037BF6602F4070
3FEFB8BEEF020BFB3
3BAFD07F25FB700D2
3ED01980BE017FF37
3170437F4FFD0BF0D
010FCBBFFEFE53EE5
2DCFBC0045040001C
36CFF5C0B8FED4003
05FFD47F6A01C406D
00B0184042FC77F03
315045FF2C01E3F38
3F9FBEFF16FF7806F
064024BF60017FEE6
0990337F41FD27F49
329FD94090FE6BFA1
0E2FC4C107FCA7EF1
05B048C01403000C7
115FC8C118FEBBFE0
08E009802402800AC
02FFC0BFD3FE58047
00DFE7807CFD340A7
08CFEA4022FCF8017
2F903140EBFEC00A9
3BFFC0BEFAFB9C0EC
308FEEFF27015805D
31A03600DDFC53F14
082FE6FFA9FEEBF5C
0E8003C04B001BFCB
30AFCB000EFE800D4
3EE042FF44FFCBF78
3AC00B001CFB7C0D0
31F002002CFD9809F
02C03CFFE0014BF33
0A7FC0808FFF1BF1B
05AFE4BF7BFF64071
07B034406CFD1FEE4
080FE0BF04FFFBF65
3F9FF4FFE8FC0BFD5
111FFFBF780188046
38A03080AFFFF0100
33403F3F390118028
052FCA7FDC04600B5
3020493FD20404073
3CF0093EFAFFD0037
0EB015409EFEDFFFA
007FB6C037FC9C119
0640237FC800C8075
2E80018021036BEF8
3A1045FF7200C403F
3EC00E40C200DC04C
2FAFDEBF47038BFD2
0B2FB940AC02C7FAD
0460088116FF3FF34
11FFBC3FBB0318017
316026C0E700A7FE3
0BD019BFB5FF37F67
2D9FF100B00033FBE
0D4FC3C01A0400063
