143C22B
1648185
1C5C2FA
18102F0
18301D3
04EC0E6
187C2E4
00EBF77
153BF53
1ED8303
1AA3DE7
096FFEE
1E4FFF7
077FF31
0843E3E
0760245
035011C
181024F
0407DCE
0A7FE60
0348285
0A7C27A
019BDA0
0523F91
1A93D92
14902DD
1E7C07C
0847D72
04F8069
1F87F96
142C22A
1C1BD5A
091C23F
14B3FC8
14181A3
0707E95
1DB3D34
0BFFE81
04BBF9E
047822B
0563D08
098BE9C
0423E50
15C42B5
1787E88
0414198
1DA3FE2
0473EA1
0103ED1
1673DA9
1F83F72
06B42A4
06EC07F
18842A6
1910019
193FD54
07F8305
0B3011E
193FFC0
1AC7FC3
1F87D2D
1C000AE
0BD7D62
0B940AD
06CFE52
148BDCE
1CC7D8E
151FD5F
045FF4A
04D428C
178FD63
08BFEF6
16C820E
1DAC112
1A102FB
18C0183
0B7002E
147BE82
0204107
1637E46
1FE3F2C
1C840BB
09EFD9F
007FFDC
0A97E6A
02341A5
1837E54
02BFD92
08AFFE9
1E84162
148C256
17640FB
098BDDB
042C2EC
182FF0C
1C4828F
07CFE7D
1573F12
0AE3F34
16DFEA0
1E600E9
187FEFE
1DEBD90
1FA3F18
0A4FF10
1418273
03E4261
0A28089
028818F
07D40AF
0AE0175
0348275
179FD53
197FDD7
005806F
187BFC6
03001D2
08E00D0
02501A3
1B8C034
0ADC14B
17DBD9F
0AB3D4D
09601EC
1CF3DBE
1AD7FC4
1A77DCA
056FFC3
1668047
1933EE8
1AA014E
1F0BE17
1A1FDEB
18B3D6A
1B6C1F5
1DD827A
01E8161
00AFFB9
03B4040
1A900AA
0084198
0267DA4
0BA3D5D
1C2FD3E
1DA4173
16BFD8A
07BFF15
1D3FFB0
09D8293
021004F
069C18A
1D8C192
18E3D0E
16A01A7
04FBF90
0507F72
0ACBEEF
0458257
1817EF6
0337E12
0764222
1FD8303
0573ECE
0888232
0BF81B4
1633F70
018FD67
14580E9
068C1BE
01F81BC
08C7D82
17982E8
06A002B
00EBF9F
02D0006
04D8086
16C42CB
1F3FD15
1D7815E
151FF68
0453E66
1BF3F35
149FE5A
01FC12A
0A53F41
04DC1D7
1623E59
1F77F07
1A73D02
1F87F4C
1EFBEA4
04A7D42
01B7F60
0990213
1D601E6
0734066
1843DC7
065C2E9
1B44286
0923D40
1E0BD74
0127D8D
1C4FF9E
0023E27
1D83DDE
09E81FC
1477FC0
000FEBC
1C00117
15C01D8
1904000
087C130
09A42E5
0667F02
050021A
0A23F95
1AEFEAD
1B4FFE9
166C1B3
0B2C197
1600077
0B98129
1B68108
0BA3EA6
0920135
07401C8
14041A6
04DFD77
1B97D4A
1E781CB
15D0063
05B808C
15CBDD4
1EBBD88
1DB3DFB
094C002
1D03DB7
178019A
1C44000
0007EBF
1F77F63
196BFFE
1FDBD7A
1E93E81
0B2BF44
1CCBDDC
1D43EF2
1F67F60
097FF33
008C25E
0A9FD41
1D48134
1D9C08A
05DC1A5
1F37E72
07EFEFA
0A9BF64
1CDC089
1A77E27
0A9C166
07AC167
09B4223
003C08F
1E2004E
18F01F4
18800D6
1E882F4
08D0124
1FA807A
071FEA6
0123FED
055BDC5
0B8C132
05341B5
1C0426F
07F80C3
193BFEA
1CD02F8
1D53F6B
1CD7FB4
16901FF
041FD3B
099C28D
1EE3DE7
0A980E1
15D015E
065FF81
19C7FC8
1C100D8
1947DDE
063C27B
03FC194
04E3EBC
1834003
1A84076
1FC3FB5
1CB80FD
07ABDC3
0073D02
0757F0B
0A34264
02B40A8
00C8008
07C42E5
1847FCF
1AD8010
1BDBFA2
181C26B
18DC1A2
05A401F
177FDF2
01C7E19
01BBD61
089C093
16B4255
1A58058
0987F21
0A3C2CA
034BDCB
02E8277
08F01A5
06DBDB2
071BD69
01B0094
16AFE46
0573D97
17DFD27
1D48023
062003F
0ADFFA6
096FD59
099FE03
0B580BF
05BFE61
0B10129
16A80F4
08E7FAC
177C1D0
1DF7EC6
14840CE
148BF1D
163C19E
05882B9
0377D81
08FC265
19FC074
1B3FED4
08ABD9C
023C0EB
0AF7FBE
06600A1
0743DDB
1F482F3
068810A
1E3C29D
19CBEA3
021FDD4
084FFAD
1F57D6F
094BF75
0B97F53
13FFE83
0863D20
08740C7
1FC0056
03F40A0
1E37F40
09A4045
0A37DE0
052403D
0383E70
0A34080
19A81BC
068C152
02CBE16
0780186
0283F69
1CC3F60
1E2C1A4
17542ED
1D882F8
020FCFB
1F5FFEB
06901D3
1A040CE
07F7E42
0353F9E
1CF00B4
03F4141
16B800D
08880C9
1B13ECD
1AD8226
1C1404F
1BE7D6C
00D7EC8
192C061
1FB00E4
06E7E78
1D702AF
0A0C1C7
0423F4D
1703F4A
1AF8148
144FD11
03002B3
14EBECC
037422C
1F74191
1E3FE83
1C13F92
0953D60
15B0003
157FEA4
059BE82
1EC82F6
1D28110
186BF06
16A3DBC
0BA81A0

