1FE7F88
0463E60
1B90322
08CFF27
120C3F1
1EAC054
04842A5
02482FA
1DFC3D5
04BFC1C
1F9BF0B
0617E31
143FE1F
075FDE9
0BD7D4A
0703F2D
11341B0
0E33F7B
1743F2D
18500EA
008C3D1
0010171
13C039A
166435C
153BDB4
03ABDD2
026C029
10D83A6
10CBF44
1D03C0A
177BE0F
00B0033
04301E4
0117CE3
1387D3A
15081F6
0123FE0
0E33CF9
1B03DB0
1D382C1
144C18E
13EBF8C
18142D6
1F23D7F
09D7EB0
1E9FD38
0967C23
0A4030E
1F77C25
1453E05
064BCC2
09AFF6C
1C400AE
061FFB4
1AABE38
007837A
01F3CED
1A0BC62
17503CE
00F00D0
0903CC3
11BFF57
1433E0C
056FDCE
154BC80
18D7DDF
188FDA5
14A01B6
1327D31
0CC4235
14343E8
124FD19
0B0C187
1823CFF
1B1C37B
121421D
09DFECE
132BCDC
1BF8095
10782C8
0B33D57
16E01D9
185FED6
02C01F0
1C0C03B
1BB4001
15DBFEC
15BC174
0C3FD4C
1AF3DEE
1887F48
04203A2
1DD7DAE
0D98378
003FFBF
11C436D
06F7CA0
15240DB
16CC304
13A0329
0697DC4
198C2E6
193C240
138C003
0E2FDF8
041FC87
0137F3F
0EBC0EC
0CF3EC6
1A4C207
0AA02F1
00BFF3A
1D700DF
03D4261
1487DE7
05201AE
0DC83DC
06BBE1C
1337CD2
0530209
1AD7E10
026BC46
0677DC7
0C943C6
04B00DC
1AB3F3E
07D3E1C
11EFD7C
0E3403C
0C40339
06743B3
128C358
0627ED0
1F682D2
176400B
09BC3FB
102BC69
1A27DB0
0B140C1
1D781D7
0D4C399
0E88188
1827F0C
051030F
1304007
0DF8224
1047E9C
1888042
1ABBC44
0807F11
0750328
0E283C2
189FDBD
06CFF3F
1C002E5
031C34B
0AFFDE4
149FE72
0D8411B
017BFEB
05BBC1B
1CAC16E
0600197
18E0354
151023A
1B400D1
03FC3A0
06DBD89
0A0C3C7
057BCC3
1237C1D
17703B5
1E640EB
173C0CE
1D54187
03A0217
12E3EF1
02581D9
07A80A7
0C13F6E
16680D6
1948115
1F78066
0594243
199BE15
03B429C
0650144
0F8FFFF
0BE3CD7
008C0D1
148414E
02C7D7A
1D23CC9
10F0234
19842D9
1047C60
0A5437E
1B1FCC6
0B08299
0D782BC
172FEBE
02FC19E
08542DB
0427FC8
127431A
01A42F1
114FD42
09540E1
17F435F
1CFBD13
02A801E
1777C70
0233EA7
0410078
14ABEC4
1200352
0934373
1EC3E5A
0953EF6
0257EFC
12B3D5E
1B27E6C
1747E43
03801C2
0EAC3F4
193C035
07BC36F
11542C0
038FD97
15843A4
14C8114
034BFA3
13ABE11
1DF3E00
087BEE0
0DFC3A9
0DAC100
1BA7E06
11BFDA3
19CFE97
0EC009C
0F08304
027808A
07FFCFA
1787E86
15DBE21
1F74027
16FC1E4
15A42CA
11B431F
0CF3E2B
1233CBA
01A7D5D
08102B0
08AC1AE
0468113

