17FFFFFF4002
3C0030003FFF
000040013FFC
07FFC000FFFE
33FFD0010000
33FFBFFF7FFC
380010007FFD
37FFEFFFFFFB
3BFFF0000004
0C0000014005
3C0050008003
3C0020013FFF
380010004004
3C001FFF8002
3FFFEFFFFFFF
080030000001
13FFF0014002
07FFDFFF4001
0C0010000001
3C0050007FFC
00002FFF4001
3FFFD0007FFD
37FFC0010003
3C000FFEFFFD
2FFFDFFF0004
0BFFB000BFFF
0C0010000005
3C0040008005
0C0010013FFC
04003FFF4003
13FFF000BFFD
3FFFB0004003
33FFE0007FFD
38001FFF7FFC
380000014004
30000FFFFFFD
3FFFDFFF0003
0C0010003FFE
2FFFFFFFC000
0C0040014005
2FFFDFFF0002
2FFFF0013FFF
07FFEFFF4001
0BFFC0017FFE
03FFBFFF8002
0C004FFFC002
380000008002
03FFD0004003
34003000FFFB
2C005FFFBFFD
03FFEFFF7FFF
0C0040000002
0FFFEFFF8004
340010008001
03FFFFFF8000
33FFE0014002
37FFE000FFFF
3C000FFFBFFF
07FFC0008003
33FFF0007FFC
380010008004
0FFFCFFF8003
10002FFFC000
08000FFF0004
0BFFCFFFFFFC
07FFD0004004
07FFFFFFFFFF
0C000FFF8000
0C002FFFC001
080020003FFF
0C002FFF8005
3FFFE0007FFB
13FFC0003FFD
0FFFCFFF3FFC
380000000004
040030013FFF
33FFF0007FFE
3C001FFF0001
3C002FFF4000
30004FFFC001
0BFFF000FFFE
0C0010014000
00001000FFFE
00003000BFFF
08003FFF4003
00004000BFFC
34000FFEC000
07FFB000FFFC
3C001FFFBFFB
10002FFFFFFD
08000FFEC001
38004FFEC002
3BFFDFFF3FFE
14002FFF4002
13FFD0013FFF
100030013FFE
3C0020010001
3BFFE0003FFE
3BFFBFFEC000
0FFFFFFF3FFF
100020004000
13FFD0014005
07FFEFFF4001
17FFE0007FFC
3C003FFF4005
08004000C000
3BFFC000C003
37FFFFFFC002
14001FFEC003
2C003000BFFE
03FFFFFF8000
10001000BFFC
08005FFFC003
0C001000C003
080010013FFB
380020013FFE
3C004FFF7FFC
33FFF0010004
00000FFF4001
2C000FFFBFFF
3C005FFF7FFC
13FFCFFFBFFF
0BFFD0007FFF
040000007FFC
140030003FFD
100000008001
13FFFFFF4002
04001FFEFFFF
37FFC0004004
3BFFEFFFFFFC
380010013FFC
3C005FFEC001
100030010001
000010003FFD
340010010003
3FFFCFFF0001
3FFFF0010005
00004FFF4001
040000008002
2C0040007FFD
37FFEFFF8003
2FFFBFFF4000
33FFEFFF7FFB
0C0010010002
03FFFFFF7FFF
2FFFE000C005
00003000C003
080010004000
0FFFF000C002
0BFFC0000003
04000FFF8004
040010004001
13FFCFFF8001
33FFF0010000
380050008005
0C002FFFBFFE
07FFE000FFFE
08003FFF3FFE
0FFFC0008000
07FFFFFFC005
34002FFF7FFF
33FFDFFF0000
000010003FFC
33FFD0003FFD
3BFFCFFF0000
33FFFFFFFFFB
07FFF0008000
08000FFEFFFD
2FFFDFFFFFFE
000000014005
040040000003
33FFFFFEFFFD
03FFF000C000
3FFFFFFFFFFC
10001FFFC002
07FFB0000002
3BFFFFFFC003
30002FFF0002
17FFD000FFFB
3BFFB0000002
380030007FFE
00001FFFBFFF
38003000C002
000040007FFF
38002FFF7FFB
10001FFF0000
13FFEFFF0001
08000FFF0000
340020000000
10002FFF8003
30004FFF0000
34005FFEC002
34005FFF8000
37FFF000C005
3BFFD000FFFF
0BFFCFFF7FFE
04000FFFFFFC
040040013FFC
080050000001
100030004003
37FFF0004003
04004FFF3FFD
00002FFEC003
04001FFFFFFC
3C0050008002
0FFFCFFF4001
0C0010003FFF
17FFCFFEC002
07FFB0013FFE
30001000C002
300020010000
33FFC0008005
3C003FFF7FFD
0C000FFFFFFC
33FFE0000003
37FFB0007FFB
2C0030010000
3BFFC0000002
380010000002
07FFCFFFBFFE
07FFF0004005
08004FFFC003
0BFFD0000000
3FFFFFFF7FFE
37FFD0000005
13FFBFFF3FFB
37FFD0000003
04004FFFBFFE
0C0040014002
3C003FFF4002
13FFBFFFC003
03FFCFFF3FFB
0BFFC0004004
38004FFF0000
2C0030007FFD
3C0010003FFC
0C0030008002
2FFFBFFFC003
3C0040000001
13FFDFFF4002
14001FFFFFFB
080040003FFC
37FFCFFF3FFC
33FFFFFF0002
37FFD000C005
03FFF000C000
17FFCFFF4001
07FFBFFF0000
0C003FFF8003
33FFBFFF8002
00002000BFFD
38000000FFFF
14002FFFC000
3FFFC000C000
07FFC0004002
3C000FFF8001
00004FFFC005
10003FFF8005
07FFFFFFFFFF
0BFFEFFEFFFD
17FFCFFF3FFC
07FFBFFFFFFD
3C004FFFFFFF
2C0010010003
2FFFFFFFC004
0BFFF0007FFD
03FFB0017FFD
03FFEFFF7FFF
08004000FFFD
30003FFEFFFF
30004FFF8003
0C0010000001
10000FFF3FFD
000050017FFB
03FFDFFF0004
33FFDFFFFFFD
10002FFF0003
3C0040014002
0BFFCFFEFFFF
04000FFFBFFB
14000000C003
0BFFD0017FFD
38004000C001
00004FFEC005
3BFFD0017FFC
0C000FFFC004
0C003FFFFFFD
08003FFF0005
080020017FFC
17FFDFFF3FFD
13FFE000BFFC
08000FFFBFFE
100010017FFD
380050004002
300030008003
0FFFFFFF8004
08000000BFFB
0C000FFEC001
3BFFC0014003
03FFE0007FFE
13FFE0008002
07FFEFFF0002
17FFB000FFFE
14003000BFFB
080020003FFD
03FFB0007FFD
04004FFF4005
10001FFFC001
00004000FFFD
14000FFFC002
07FFC0008005
33FFC0010003
300020008003
0FFFCFFEC003
0FFFF0000000
2FFFB0000003
03FFEFFFFFFD
340020007FFE
30003FFF0000
0C0010007FFB
0BFFFFFFC003
3BFFEFFF3FFE
0C000FFEFFFC
0FFFF0004003
30002FFF3FFD
14005FFEC003
04003FFF7FFC
380040014005
3C0000007FFB
3FFFBFFEFFFE
04001000BFFB
0C000FFF3FFC
300030003FFE
0FFFE0000004
34005000FFFB
0BFFC0000003
07FFEFFF7FFF
37FFC0003FFD
07FFD000FFFD
3BFFDFFF8001
2C0030013FFF
38001FFFC000
040040004002
2FFFC000FFFF
3FFFD0010000
33FFEFFF7FFD
100020017FFF
04000FFFC003
3FFFD0000004
0C005FFFBFFF
080030003FFC
33FFF0008002
0C0030017FFE
380030010002
00005FFF3FFE
13FFB000C001
33FFD0000004
0C004000C004
03FFD000BFFD
03FFF0004001
03FFB0008003
3BFFE0008001
080010000003
3FFFC0000000
000010013FFF
00000FFEFFFD
04001FFFBFFC
0BFFC0008004
000010004005
07FFBFFF3FFC
080020004003
2FFFF0004000
0FFFC000FFFF
380040017FFE
380050017FFF
0FFFEFFF0004
380030008002
3BFFF0013FFD
300050000000
30000FFFFFFE
0FFFCFFF7FFF
000020013FFD
00003000C002
30002FFF8001
00003FFFFFFF
3BFFE0017FFD
0BFFD0007FFE
3C003FFEC004
37FFFFFFFFFF
3BFFD000BFFE
37FFEFFF4000
00005FFF3FFE
33FFF0000000
33FFCFFF7FFE
00000000BFFB
34002FFFC004
08001FFFBFFB
04005000FFFB
0FFFDFFF4004
38002FFFBFFD
07FFDFFF3FFC
040020003FFF
3BFFDFFFFFFB
340030003FFC
07FFC0000002
37FFB000BFFB
380000014005
0BFFDFFF7FFD
140050000004
0FFFBFFFBFFF
0BFFC0003FFC
34001000FFFF
03FFCFFF7FFD
08000FFFBFFC
03FFD000FFFE
13FFDFFFFFFE
040040000003
34002FFF8002
10002FFFC001
0FFFFFFFBFFC
00004FFF0004
300010010000
3BFFFFFEC003
0FFFF0010003
2C0000000002
0FFFF000BFFE
000010010001
080040014002
10002FFFC005
13FFCFFEC004
10003FFFBFFC
2C003000C003
0FFFE0000001
100050000002
04000FFEFFFC
3FFFE000BFFE
17FFDFFF0005
33FFF000C002
3C005FFFBFFE
34001FFF3FFF
37FFDFFFFFFF
07FFDFFFC004
100010013FFC
0BFFDFFF7FFB
17FFDFFFC004
3FFFFFFF4003
3FFFEFFF8002
0FFFCFFFC001
00002FFEC002
04002FFFFFFB
0FFFD0013FFF
340050017FFD
33FFFFFFBFFB
0C0050008000
3BFFBFFFC002
10001FFF7FFD
04004000FFFE
00005FFF7FFF
03FFFFFF4001
14002FFFFFFB
0C0030008004
3BFFD0008004
10002FFF8000
100010004002
33FFB000C004
0BFFEFFFFFFE
0C0000017FFD
3C000FFF7FFD
17FFDFFFFFFC
300020007FFB
33FFDFFFBFFF
33FFB0013FFB
07FFC0004001
34005FFFC000
04003000BFFB
2FFFB000FFFE
07FFDFFF0004
0BFFF0014001
040050004004
040000004000
17FFCFFFBFFD
340040000003
080000008005
000020010002
34004FFF8004
3BFFCFFEFFFC
00001FFF3FFE
07FFFFFFC002
2C004FFFC004
0FFFB000C002
38001FFF0002
2C000FFFC002
2C005FFF0004
300020008002
300030013FFD
07FFBFFFBFFE
30002FFF0002
13FFD000C002
13FFC0000004
080040004002
03FFC0014003
0FFFFFFF7FFD
30004FFEC000
3FFFC0010000
13FFD0007FFE
34001FFFBFFC
380030014002
37FFFFFF7FFF
3C005FFFC000
03FFDFFEC004
3FFFEFFF4003
10001FFF8000
34001FFFC002
140020000004
13FFF000C005
13FFC0000000
0BFFD000C003
37FFFFFEFFFF
380000010001
0FFFBFFF4000
08004000C003
3FFFCFFF7FFC
2C0020004003
3BFFD0008000
000000000002
3C000FFEFFFF
040040000004
37FFC0004005
3C0010017FFB
07FFC000BFFF
07FFB0003FFC
07FFDFFF7FFD
34003FFF8001
3C002000C005
37FFE0010001
340040017FFD
13FFF0007FFE
340010014004
3BFFEFFF8005
13FFD000FFFD
040050004005
00002FFF0000
3BFFD000FFFD
300020013FFF
3C0020004005
2C002FFFBFFD
0BFFB0000001
37FFFFFF7FFC
34005FFF3FFE
300020008000
3FFFE0000003
080050004003
000020008002
38000FFF7FFC
3C004FFF0000
10004000FFFB
3FFFBFFFC000
10003FFF8000
340040010002
03FFF0000000
0BFFDFFEC003
30003FFEC003
0BFFC0007FFC
0C0020008005
340000017FFF
33FFFFFF0000
04001FFF8002
10002FFEC000
100010007FFE
34000FFF3FFB
0BFFFFFF4004
2FFFE0008003
33FFCFFF3FFF
00000FFF4005
0C0020004003
2C004000C005
3FFFE0007FFF
37FFCFFEFFFE
03FFDFFFC005
380030010002
13FFF0008005
3FFFE0004000
080000008003
03FFCFFFC001
07FFFFFFFFFD
380050004001
2C0020013FFB
100000000004
3C0000000000
0C001FFF4002
38004FFF0002
07FFEFFF8003
2FFFE000C005
10000000FFFD
38003FFFC001
04004000BFFD
0BFFE0008000
33FFB0013FFE
13FFDFFF8004
000020007FFD
140010010005
0FFFFFFFFFFF
3C000FFF0003
0FFFC0007FFE
380050000000
00002FFF0001
17FFC000C001
34003FFF4001
0BFFC0013FFC
17FFCFFF4002
04004000FFFD
080040004003
0BFFDFFFFFFF
08003FFF7FFD
33FFBFFF7FFF
04005FFFFFFD
38004FFFBFFD
33FFD0000000
03FFEFFFBFFD
300010003FFF
07FFFFFF4002
0BFFF0007FFB
10000FFF0005
3BFFEFFF7FFB
00002FFEC000
300000010000
17FFD0017FFF
340030010002
30002FFF4000
10001000BFFB
03FFB0010002
08003FFFBFFD
340000007FFD
13FFC0008001
2FFFDFFFBFFF
37FFB000C004
30004FFF0000
14001FFFC004
2FFFEFFFBFFE
0BFFFFFF8004
080020004002
30003000C000
3BFFFFFFFFFB
3BFFCFFF4005
0BFFCFFF3FFC
2C004FFFC005
2FFFF0007FFF
0FFFE0000002
08003FFF0003
04001FFEC004
30004FFFFFFC
0C002000C000
080030017FFC
37FFB0010003
000050008002
03FFF0010004
08005000BFFF
04005FFFBFFD
2C002000C004
17FFFFFFC003
380050004001
3C0050017FFD
00000FFF0003
08002FFEFFFF
080040014005
07FFEFFFBFFD
380040003FFD
3BFFDFFF8004
08004FFF0004
17FFD0004004
3C0010013FFE
00005FFEFFFC
100020000001
340040010000
040010007FFE
10001000BFFC
300010004000
37FFF0008001
3FFFDFFEFFFB
2C0000014001
03FFEFFFC004
3C0030008000
2C000FFF8002
10001FFF0002
000010004002
3BFFC0017FFB
37FFCFFF4004
0BFFF000C003
37FFC0004002
340010003FFB
34001FFF8005
33FFBFFFBFFF
38003FFF0004
300030008002
38000FFF8000
00005FFF7FFD
08005FFEC002
3C000FFEC005
08001000FFFE
34004FFF7FFD
13FFE0014004
07FFBFFF8005
3BFFD0003FFF
10003000C003
100050000000
33FFB0003FFD
100040004004
34000FFF8002
300050008005
37FFBFFF7FFE
0C002FFF0005
0FFFEFFFBFFC
33FFD0004001
3C000FFFC001
140010017FFF
3FFFB0010000
0BFFDFFF0000
38004FFFBFFC
33FFDFFFBFFF
000020008000
3FFFC000FFFD
0FFFDFFEC004
30004000C002
10001000BFFD
10001000FFFC
2C001FFFC004
10000000C005
3C005000C000
13FFCFFFC001
00004000BFFC
30001FFFBFFD
3FFFE0000001
33FFDFFF4003
07FFF0014002
34005FFFFFFC
140010010002
08004FFF8001
0BFFCFFF8002
0C004000FFFB
2C004FFF0002
3FFFF000BFFE
0C0010013FFC
2C0050017FFE
2C000FFF4000
00005000BFFB
0BFFEFFFBFFF
3FFFDFFF4001
0C001FFFBFFC
300020008001
380000000003
2FFFE0004004
3FFFFFFEFFFF
33FFDFFF0001
07FFC000FFFB
0C0010013FFD
13FFC000C002
08000FFF0003
0C004FFF8003
040020014001
30002FFF8000
33FFC000BFFE
00001FFF4003
3C002FFF0002
140040017FFE
10004FFFFFFB
30001000FFFB
380010000002
03FFCFFF0000
0BFFFFFFFFFC
3C002FFF4002
0FFFDFFF8001
3C001FFFBFFD
13FFDFFF0003
04000FFF0000
340040000000
0BFFDFFF3FFC
37FFEFFFBFFC
04001FFEC001
040000000001
07FFC000BFFE
0FFFE000BFFE
17FFDFFF0005
0FFFDFFEFFFD
3C0030013FFF
13FFEFFF7FFF
13FFF0003FFE
2C004000C001
14004FFF3FFC
10002FFFFFFC
33FFC0000001
08003000FFFF
2C0050014004
30003FFFC005
00002FFF8005
340040004003
2C002FFF8000
04000000C001
3FFFD0010002
3BFFC000C001
0FFFBFFF8003
07FFF0004003
17FFE0007FFC
0C0000004004
0FFFDFFEC003
13FFDFFEFFFE
08005FFFC003
07FFDFFEC000
080050013FFC
00005FFF7FFD
3C0050014002
0FFFEFFFFFFF
37FFFFFF4003
13FFFFFF8001
38004FFF3FFD
0BFFD0004000
08002FFF3FFC
3C0030000000
00004FFFBFFC
3FFFF0007FFE
140020008002
0BFFC0017FFD
04000FFF8002
14001FFF4002
13FFDFFF0003
00002FFFBFFD
17FFE0003FFC
2C0040017FFF
14000FFF3FFC
2C002FFFBFFF
3C002FFFC005
3FFFCFFFC002
13FFE0008002
38002FFF7FFE
07FFE0004002
07FFFFFF0001
08001FFF3FFD
3FFFF0008004
3C003FFFBFFE
3C000000FFFF
08004FFFC003
2FFFD0007FFD
0FFFBFFFC001
340020008003
04004FFF3FFE
04004FFF0005
3C0020010003
380030007FFC
3C001FFF7FFC
040000010003
0BFFEFFF3FFC
00000FFF4000
2C005FFF8004
10003FFF4002
0BFFB000FFFE
37FFCFFFFFFD
03FFBFFF4000
10002FFF7FFE
04004000C004
080040004000
0FFFDFFF4001
0C0030014002
100030007FFD
13FFEFFFC001
13FFE0008004
34004000C000
08003000FFFF
34005FFF0001
38001000C000
040040004004
08003FFF0004
03FFD0017FFE
080040008004
0C000000FFFD
340040003FFC
0FFFBFFF0002
30005FFFFFFF
0FFFFFFF3FFE
3BFFBFFFFFFF
33FFFFFFFFFD
14002FFEFFFE
10004FFF0004
30004000C002
03FFD0010003
03FFD000FFFC
380020013FFB
2C002FFFC000
000010013FFC
0BFFBFFFFFFF
33FFC0010001
0C004FFFBFFD
2FFFFFFF3FFC
03FFEFFEFFFD
140010003FFE
17FFF0003FFD
34002FFF4001
300020007FFF
040010010002
17FFC0008000
04004FFF4003
2C0010004003
37FFCFFF8002
00003FFFBFFB
3BFFB000C002
10002000C002
13FFC0004004
37FFD0007FFC
3BFFE0013FFE
10001000BFFF
37FFC000BFFD
2C0030008000
340020013FFE
0BFFD0000005
3FFFD000FFFB
3BFFCFFF3FFD
2C001000C001
30003000C002
2C0020004001
00003FFF8004
07FFE0013FFD
04005FFF0001
14000FFF0002
300050017FFE
37FFFFFEC000
33FFD000C002
000050014000
38002FFF7FFC
17FFD000BFFB
3C0020014002
340020003FFF
380030013FFD
340030014003
03FFC000C000
08002FFFC003
00003FFF8005
3FFFFFFF8003
0BFFE0000005
3C0030004005
0FFFD0010000
00001FFF4002
03FFE0000002
3BFFF0013FFD
37FFD0008002
3FFFCFFF8001
2C003FFEFFFC
33FFF0008003
37FFFFFF8004
37FFC0003FFD
0C003FFF3FFD
3BFFF000FFFC
37FFCFFFC002
3C000FFEC003
2C002000FFFC
34002FFEFFFE
3BFFFFFF8002
07FFB0014004
33FFEFFFFFFC
04001FFFC003
07FFCFFF7FFD
0FFFD0000001
140040004002
0BFFEFFF4000
10003000C000
17FFFFFF8001
080010000000
0BFFDFFFBFFC
0BFFE0013FFD
3FFFD000FFFF
07FFB0008004
0BFFCFFF7FFF
3C0020000003
10003FFFBFFC
2FFFFFFF0002
30002000BFFD
33FFCFFFC000
30002000C003
13FFEFFF3FFC
3BFFC0000002
100020008005
0BFFF000BFFE
04004FFF4002
0C0040013FFF
0C004FFFBFFE
33FFE0008001
0FFFCFFF8005
14000FFF3FFD
10003FFFFFFE
30003FFFC002
0C004FFF8003
17FFE0013FFF
3FFFC0007FFC
30004FFFC003
03FFC0008001
040030014003
07FFF0017FFF
37FFFFFEFFFE
10003FFEC001
34003FFFFFFE
2FFFF0010004
33FFC0008005
08000FFF7FFD
2FFFDFFF4003
33FFC0014003
100010010001
13FFC0004004
37FFDFFEFFFF
0BFFEFFF3FFB
3C001000FFFF
0FFFF0007FFB
3BFFD0004001
040020000005
3BFFDFFFFFFE
07FFE000FFFD
07FFE000C003
340010008001
380040013FFE
30001000C004
100010013FFB
3FFFC000BFFC
13FFB0000002
04000FFFC000
2C001FFEC004
3C0020003FFD
13FFD000C000
0C0020008001
100000007FFF
0C004000C003
380010014000
14002000BFFC
13FFB0010005
14003FFF7FFC
2C004FFF8005
3BFFD000BFFC
37FFEFFF0003
0C003FFFBFFC
14005FFFBFFD
080000003FFD
3C002FFFBFFE
040010013FFB
33FFEFFF0003
000020003FFC
380030008004
380050017FFC
3FFFEFFF0003
33FFCFFF4003
38002000FFFF
0BFFCFFFC005
34004FFF7FFC
3FFFE0013FFF
03FFE0010000
3C001000FFFF
07FFC0010005
10001FFF0002
34004000FFFF
10000FFF3FFB
2C0040003FFE
0C005FFFBFFE
0BFFD000BFFC
38005FFF8004
380040003FFD
3FFFCFFFFFFE
380020014003
3FFFFFFEFFFE
3BFFD0017FFB
0C003FFEFFFB
33FFD0000004
3C003FFF8002
38001FFF8001
10000FFF8004
03FFB000FFFF
3FFFCFFF0005
0FFFD000C003
33FFB0004001
3BFFFFFFC000
2C004FFF3FFE
3C0020008002
34003FFEFFFE
000000004000
34000FFF0004
14004000FFFE
100010000002
0BFFF000FFFD
13FFB0010001
30004FFF8000
0C0030010003
14001000C002
33FFE000BFFF
38004FFFBFFD
3BFFE0007FFF
100010013FFE
0BFFC0013FFE
000040008000
38001FFF4003
340000000002
2FFFFFFEFFFE
30001000FFFB
07FFD000C004
2FFFE0014001
33FFDFFF7FFF
0C004FFF3FFF
0BFFDFFFC004
340000000003
3BFFC0000004
04000FFF7FFE
17FFC0017FFC
07FFCFFFFFFB
07FFE0004002
000000000002
0FFFD0000000
03FFD0010001
07FFD0010003
00001FFF0000
3C0040010000
0BFFDFFFBFFF
07FFD0017FFF
34001000BFFE
37FFE0000004
03FFBFFEC000
2FFFBFFFC002
0BFFC0000001
000040017FFE
0C0030004000
17FFF000C002
0BFFDFFFFFFF
0BFFC0004002
13FFDFFFFFFF
07FFFFFF7FFF
300040000002
0BFFE0004002
3BFFFFFFBFFE
08001FFF8002
03FFEFFF7FFC
0FFFD000BFFF
0C003FFF4001
3C000FFF0000
0BFFCFFF4000
00002FFEC000
34003FFF7FFB
080020004001
17FFCFFFC000
13FFC0007FFF
3C0000007FFE
0C0040003FFF
03FFE0000003
30001FFF8002
100010004003
07FFC000FFFC
3BFFB0008001
0BFFC0013FFB
3BFFDFFF0004
37FFFFFEFFFB
04000000C000
14003FFEFFFE
0C004000FFFC
30005FFFFFFD
340030000003
10004FFF4004
2C003FFF7FFE
380020007FFF
14001FFF3FFD
0FFFF0010003
3C0050008004
13FFDFFF8001
00003000FFFD
3C0030013FFB
10004FFF0004
37FFDFFFBFFC
10005000C002
3C0010008001
37FFBFFFBFFD
0C003000C004
03FFE000FFFB
3BFFFFFF0004
080020008004
30000000C004
03FFC0004004
3C0040008004
0C0000008005
2FFFC000C001
340010007FFB
3C000FFF4000
37FFEFFF0002
13FFDFFFFFFE
300030004003
140010013FFF
38001FFFC000
03FFE0007FFE
340010010003
000040004001
3C003FFFFFFB
2C001000BFFD
07FFFFFF4004
14004FFFFFFC
0C0010008000
04001FFF3FFD
3C004FFF7FFF
080040007FFF
34002FFF4005
2FFFC000C000
03FFDFFF0000
300030014005
00003FFF4000
33FFDFFF8001
00002FFF3FFC
07FFF0013FFF
380010000001
0C0030014000
000020008002
0BFFC0014001
38002FFFFFFC
37FFDFFEFFFE
0FFFB000FFFB
100020008002
0C000FFF3FFF
13FFCFFFC002
3BFFDFFF7FFE
34004FFFC003
17FFD0007FFF
0FFFB0007FFF
00001FFEFFFD
0C0040000003
33FFF0000000
03FFD000C002
10000FFEC004
3BFFE0000003
040040003FFE
0BFFE0013FFC
040020013FFF
00001FFFFFFD
38000FFFBFFE
0C004000C005
080040004003
34000FFF4005
0FFFC000C003
0C002FFFBFFE
14000FFF0001
13FFC000C004
03FFCFFF0005
0BFFC0010001
03FFF0013FFC
14003FFF7FFC
3FFFC000FFFF
140040000003
000020010001
17FFF0017FFF
2FFFEFFFFFFC
3FFFEFFF0002
38005FFF8003
2C005FFF3FFB
2C0020004003
03FFCFFFC005
080010007FFE
07FFE000FFFE
3C0000008005
00001FFFFFFF
17FFC0010001
08003FFF0000
34005FFF4000
3BFFF0008002
2C003FFF0004
0C0040000005
100000003FFD
10001000C002
340020008002
3FFFD0010000
3C0000014003
33FFFFFFC004
38003FFF0001
03FFF0010001
3FFFB0004002
33FFE0013FFF
3BFFCFFEC001
13FFFFFFBFFE
2FFFEFFF0005
10004000FFFD
04003000FFFE
38004FFF0003
080020014003
2FFFEFFFC001
37FFE0004004
000040013FFD
13FFBFFFFFFD
38004FFEFFFB
07FFD0008003
37FFBFFF7FFD
3BFFD0010001
38003FFF0003
2FFFD0007FFF
000030004003
38002FFFC002
34000FFF7FFC
07FFF0017FFE
0C0020008001
13FFFFFF7FFE
3C0050010002
00001FFF8004
3C0000004001
08001FFF7FFF
0BFFFFFF7FFF
00003FFF4003
03FFBFFF4000
0FFFDFFFFFFD
17FFC000FFFD
2C001FFEC001
380040007FFC
0C0050010000
3C000000C004
3BFFD0000004
0C000FFF3FFD
37FFBFFF4001
13FFD0017FFE
340010007FFF
300010007FFB
0FFFEFFF0000
37FFD0008003
04003FFEFFFC
100000004003
10003FFFBFFF
0BFFEFFFBFFF
00001FFF7FFB
37FFCFFFC003
0C003FFF7FFC
33FFFFFF3FFE
3C0000008004
33FFFFFFBFFE
30000FFF0004
340040003FFE
07FFB0010003
07FFF0013FFE
040000008004
3BFFE0010003
04004FFEFFFB
30003000FFFC
380020010001
10002FFFBFFE
0BFFF0013FFE
00003000BFFB
30005FFFBFFF
33FFEFFF7FFF
0BFFD0000002
3BFFDFFF7FFC
33FFCFFF7FFE
0BFFFFFFFFFE
00002FFF3FFB
000020003FFB
3C0010007FFD
3C002000C004
17FFEFFFBFFF
0FFFEFFF7FFC
0FFFFFFF7FFE
34002FFEC002
30005FFFC000
0FFFE0000003
07FFFFFFBFFC
04003000FFFF
33FFCFFF4002
340010004000
0FFFB0003FFD
13FFD0000005
100000013FFC
3FFFE000FFFC
100040010004
00000FFEFFFC
08002000FFFB
07FFEFFF8002
13FFCFFF7FFC
04000000C004
37FFC000C002
040000004001
2FFFE000FFFF
2C005000BFFD
300040003FFE
38002FFFFFFF
300040013FFF
340020004001
0C000FFF4004
380040004001
340040014002
100020008004
380010010002
2C0010003FFC
13FFD000C004
34004FFEC002
33FFFFFF3FFD
00000FFEC005
2FFFC0010001
000020007FFD
3C002FFEFFFC
0C003FFF7FFE
140030004004
3FFFD0014005
33FFC0004002
37FFBFFF7FFE
140040014001
30002000BFFF
080000008004
37FFD0010003
080030003FFF
0FFFEFFFC003
3C002FFF0003
13FFCFFF3FFF
37FFFFFFC004
0FFFD000BFFF
0BFFF0017FFD
08003FFF8003
10000000BFFB
37FFE0004001
3BFFF0017FFE
0FFFDFFEFFFD
00000FFF4000
13FFE000FFFE
13FFFFFF3FFD
0BFFB0003FFC
17FFCFFF0001
38005FFFC003
000020004001
3FFFDFFEFFFC
100020007FFC
2C001000FFFC
04002FFF3FFE
13FFFFFF4003
0FFFD0003FFF
0BFFB0004001
33FFCFFF7FFF
17FFBFFF4001
34000000BFFF
04003FFF7FFE
13FFD0003FFF
08001FFFBFFB
3BFFE0000003
30004000BFFE
340010004002
000050003FFC
3BFFEFFF8004
140030003FFC
08004000C002
100010000002
08003FFFC004
3BFFD000BFFD
30005000C004
30002FFFC005
3FFFF0003FFE
140020014003
0FFFFFFF0004
08004FFFC000
0BFFC0010003
34002FFF8005
3C002FFF4000
00002FFFBFFD
040000017FFF
33FFE0010003
2C004FFF7FFE
00001FFF4005
08003FFF7FFD
0BFFEFFFFFFF
10002FFF0002
37FFF0013FFC
37FFEFFFFFFB
33FFB000BFFD
2FFFF0003FFF
080040000000
33FFEFFF4000
30003FFFC003
0C001FFEC001
380040013FFB
00003FFF8002
300010007FFC
3C003FFF0003
040030008000
30003FFF0003
13FFF0003FFD
0C0040007FFF
3FFFF000C004
10004FFEC003
30002FFF7FFE
3BFFD0003FFF
00002FFF0000
140020008001
2FFFDFFFC000
300040014003
07FFD0003FFE
08004FFF0005
300050004004
10001FFFFFFE
04004FFFBFFF
3C002FFF8004
37FFF0000001
0BFFF000BFFE
0FFFDFFFBFFC
17FFC0014004
300000003FFE
2C000FFF0000
2C0030004004
13FFE0003FFD
07FFFFFF8005
33FFE0013FFF
100000013FFE
07FFF0004001
040000008000
3C004FFF0005
13FFFFFFC003
13FFDFFEFFFD
080000013FFB
0FFFDFFF7FFB
03FFE0004004
2FFFB0013FFF
17FFC0008000
000050004002
13FFD0014003
03FFCFFF8000
13FFC0003FFB
080030008005
100040008005
3FFFBFFFFFFE
13FFDFFFBFFC
10003FFF0005
38002000C001
03FFC0010003
100050010000
040040008000
10000000FFFC
040020000001
3BFFFFFEC001
040020010000
13FFBFFF8005
0BFFDFFFC004
30002FFF4002
2FFFC0007FFD
000020004004
34005FFF0002
03FFCFFFC002
3C000000FFFC
000000007FFF
0FFFC0013FFF
0C0000010004
34005FFF8004
3C0040000002
37FFE0013FFD
33FFDFFF4004
300010010003
380020000005
0FFFBFFF8002
3C002FFF0003
04001FFF8000
380030017FFB
10003FFF8003
08001FFF0003
2C002000C005
08003FFF8000
00003FFFFFFE
0BFFD0010002
3BFFC0004004
0FFFD0000001
040040010000
08002000FFFC
3FFFCFFF7FFE
07FFE0013FFC
10000FFEFFFF
380030007FFF
3FFFE0004005
04000FFF7FFD
3C001FFF7FFE
04002FFF8005
13FFEFFF8000
3FFFC000FFFF
3C000FFEC002
03FFEFFFBFFC
33FFCFFFBFFF
100000000003
340040010005
100020003FFE
37FFD0003FFD
0BFFF0010003
03FFDFFF7FFC
13FFB0003FFE
13FFD0007FFF
00004FFEFFFC
0C001FFF7FFD
38003FFEC001
03FFCFFF0001
38004000C004
100030007FFD
3BFFB0008005
30003000C002
3BFFFFFF3FFE
00001FFFC004
30003FFF4003
0C001FFF4002
30005FFFC003
03FFEFFF7FFE
2FFFFFFEFFFF
10003FFFBFFB
080040003FFD
08004FFEFFFF
08002FFFFFFE
3C0030003FFE
13FFE0010002
07FFE0008002
0C0000014003
3BFFBFFFBFFD
04001FFF8001
3C002FFF7FFD
07FFC0003FFF
34005FFF0001
04000FFF8001
040050010001
0FFFD0013FFE
080000004003
2C0000000003
0FFFB0013FFD
33FFEFFF4003
0C004000C003
10003FFF8005
17FFFFFF0005
38004FFF3FFC
340010000000
0FFFEFFEC005
3BFFFFFF0002
07FFEFFEFFFD
07FFC0008000
2FFFE000BFFD
00001FFF0000
340040000004
38000000FFFC
03FFC0004005
000030010002
17FFEFFEFFFB
17FFE0004001
17FFC000FFFB
08003FFEC005
13FFEFFF0005
140050013FFE
34004FFF7FFD
380020010004
03FFD0017FFC
13FFC0007FFC
0C0000010002
0FFFCFFFC001
140010014002
0BFFE000C003
13FFBFFFFFFB
37FFEFFF4005
0BFFCFFF7FFF
3FFFCFFFC005
07FFB0010001
37FFDFFF4005
33FFFFFF8001
10000FFF3FFB
0FFFCFFF4001
0C001FFF4001
3C002FFFC003
10004FFF4004
3C004FFFFFFC
34003FFEC000
30003FFFFFFF
3FFFC000C003
10000FFF8005
3C000FFFFFFE
00000000C003
2FFFEFFF7FFE
38003FFFC000
0C0000008000
3C004FFFBFFB
0FFFCFFFC000
07FFF0000004
3FFFD0014000
2FFFD0000000
07FFD0017FFE
080000008001
340040004002
17FFD0008000
3BFFCFFFC003
2FFFB0004004
13FFCFFF8005
10001FFFC001
03FFCFFFBFFC
3C002FFEC003
3FFFC000BFFF
00004000C003
0FFFF0010003
340040000001
33FFCFFF8005
0FFFDFFF8000
37FFF0008001
0BFFE000BFFF
300010004001
38005FFFC001
0BFFDFFEC000
10002FFF3FFF
080040007FFC
0C000FFFFFFF
10005FFF4005
03FFEFFF8003
3BFFF0017FFC
07FFE0014004
0C0050013FFB
00005FFFC001
080020008000
14004FFF8004
080010013FFC
38000FFF0000
0C0040007FFE
38005FFF0005
3C001FFF3FFB
08000FFF4002
30002000BFFC
0FFFF0014003
080030003FFB
04004000FFFD
34003000C000
3BFFCFFF7FFE
34000FFF4001
07FFEFFFBFFB
17FFB000FFFF
000000008000
0FFFEFFF0003
0BFFDFFFFFFF
03FFDFFF8004
08005FFEFFFE
00000FFF0001
33FFCFFF4004
2C003000C001
04000000C000
30001FFF3FFD
07FFF0013FFE
0C0030000004
3FFFDFFF7FFE
03FFFFFF4002
03FFD0000001
34000FFEC000
3FFFFFFFFFFB
380040000004
3BFFCFFF3FFD
0BFFC0010004
14005FFF8002
03FFD000BFFE
33FFC000FFFD
0BFFF0013FFE
140030017FFF
33FFDFFEFFFF
2C0040010002
14002FFF0003
140030004002
0FFFD0010002
3BFFDFFFC002
3BFFCFFFBFFE
3FFFD000C001
38000FFF0001
300030000003
2C002FFEFFFF
0C0050003FFB
38001000FFFF
08003FFF4005
08003FFFC002
10000FFF8002
38003FFEC003
38005000FFFC
07FFBFFFFFFB
3BFFBFFFC004
08003FFFC002
33FFD0014005
0FFFBFFF8004
13FFDFFFC004
03FFE0008004
340030007FFB
3BFFFFFEC001
340000013FFE
3BFFDFFF3FFD
080050003FFC
33FFF000FFFD
340000010000
380040003FFB
38004FFF7FFF
13FFCFFF4001
10004FFEC004
000010008000
37FFD0014001
3FFFF0003FFB
3BFFF0013FFF
37FFEFFFBFFC
03FFF0003FFE
38003000BFFC
00001FFF7FFE
04003000C001
00004000FFFF
13FFDFFF8001
340040014000
3FFFC0010005
0C0020010000
0BFFE000C001
0C005000FFFB
0C000FFF4003
3FFFEFFFC004
38005FFFC003
13FFFFFEFFFE
04001FFF3FFD
14001FFF4001
37FFD0004003
04000FFFBFFB
10004FFF0003
07FFE000C002
3BFFDFFF3FFF
37FFC000C001
07FFD0013FFF
13FFD0014005
04003FFF0000
10001FFFC003
3C0030010003
03FFCFFFBFFD
3BFFE0004004
07FFF0017FFD
37FFDFFF7FFD
38003FFF3FFB
13FFF0003FFD
03FFBFFFFFFF
040030010000
000010017FFD
07FFDFFEC003
0BFFD0000001
3BFFBFFEFFFB
2C003FFF0002
10000000BFFB
3FFFEFFF7FFD
080000017FFD
07FFE000BFFF
33FFC0010005
13FFF0003FFC
2FFFEFFF0002
37FFFFFFC000
340000003FFD
34004FFF4000
37FFFFFF0003
38005FFEFFFC
14000FFFBFFF
34004FFFBFFB
0C000FFF3FFD
17FFEFFEC000
080020008003
03FFD0010000
3BFFFFFFFFFC
33FFEFFFBFFC
0C001000BFFF
3C002FFFFFFF
3FFFC0003FFB
0C0020007FFC
10000000BFFB
3FFFE0004004
3C002FFF0004
040040000000
0FFFF0007FFC
0BFFD0004003
03FFD0010001
0C001FFEFFFB
3C0020008002
0BFFC000BFFF
3BFFD000FFFC
30003FFF4004
34005000C004
30003FFFBFFE
380040013FFE
3FFFCFFF0002
0FFFB000C001
04002FFF8004
00003FFFBFFC
10005FFF3FFC
0BFFF000C000
07FFCFFF8004
03FFE000FFFD
38000FFFBFFD
3FFFC000FFFC
3C003000BFFF
340030004001
14003FFEFFFC
10004FFFFFFF
2FFFDFFEC003
3C003FFFBFFF
17FFC0013FFB
0C003000C003
100040000000
0BFFD0014002
3BFFDFFF0001
10000FFF8001
3C000FFF4004
08004000FFFD
3BFFD0017FFC
33FFDFFF8003
0FFFDFFF4002
0FFFE0007FFE
10001000BFFD
3BFFC0008001
380010014002
00000FFF0004
30001FFF3FFF
00000000FFFD
0C001FFFFFFB
3C0020007FFD
380000008000
30004FFF3FFC
0FFFB0010003
3C001FFFC004
0BFFFFFFFFFD
080030008000
07FFB000C003
040000004001
0C0000000001
3C0030010004
33FFDFFF8005
30003FFF4003
3BFFDFFEFFFE
0C001FFF7FFE
3C004FFF7FFF
00003000C003
0C0030003FFD
08004FFEC002
04002000BFFF
34002FFFC004
34005FFF3FFD
0C003000C001
00001FFFBFFE
13FFF000C004
0BFFD0000002
30003FFF4003
07FFDFFF0002
100000007FFF
17FFE000C004
04000FFF8002
00000FFF0000
2C005FFF7FFD
38002FFF7FFC
100040004000
040010010005
10000FFFC000
07FFFFFF8003
3C0010008005
33FFC0007FFD
33FFF0000003
080000017FFC
3FFFB0004004
340030008003
38002000BFFB
37FFF0017FFD
14003FFFC004
0BFFBFFFBFFE
30000FFEC000
100040010002
3BFFBFFFFFFD
2C005000C005
37FFE0000002
3BFFE0003FFC
13FFD0013FFB
00004000FFFE
0FFFD0008001
080050008000
13FFF0008000
08000FFF7FFF
2C005FFEC004
100010003FFC
33FFD0000005
10001FFF8003
3FFFD0000000
0FFFF0000001
0C0040010004
2FFFFFFF0000
380010008000
07FFB0000004
380030014000
03FFF0017FFB
03FFC0004003
3FFFC0000004
000040010001
100050007FFE
04004000FFFF
2C0030003FFE
13FFC000FFFF
10005000BFFB
13FFDFFF7FFE
3C000FFF0000
03FFD0003FFC
08003FFF8005
10004FFFBFFE
07FFC0000002
03FFF000FFFD
3FFFD0017FFD
37FFFFFF0004
2C0040014003
07FFB0014001
3C005FFFC003
3C002000BFFD
000010010000
08005FFFC000
3C0020000004
33FFD0003FFF
13FFD0017FFD
140010013FFD
38000FFFFFFC
300040014004
040010000003
33FFEFFFBFFE
34004000C004
04000FFFBFFD
0C001FFEC002
3BFFE000BFFF
0BFFF0004002
33FFD0004002
00005000FFFC
13FFFFFFFFFD
03FFD0008003
10002FFF7FFC
08005FFF0000
03FFC000FFFB
37FFE0003FFC
00004FFFBFFB
30003FFF7FFB
3FFFD000BFFF
3C004FFF3FFE
3FFFCFFF4001
380000010002
08000FFFC000
3C0000000002
080040010001
13FFEFFF8000
2FFFF0003FFE
3BFFBFFEFFFD
30001FFF8004
34001FFFC002
04000FFF4003
03FFCFFFBFFD
03FFC0014004
17FFE0000003
13FFFFFF4003
2C0040010001
13FFFFFF0004
07FFBFFFFFFE
3BFFBFFF0002
000040000004
0C0030004000
000050003FFB
0BFFF000C005
0C0030008002
300030003FFE
3FFFB0003FFE
0BFFCFFF3FFE
38001000FFFC
34002000C002
0C002FFF4000
13FFB0013FFE
3C003FFEFFFD
380020010004
3C004FFFC004
33FFF000C001
14004000BFFC
3BFFE0000005
3FFFE0008004
37FFC0003FFC
3FFFE000BFFE
3C0050013FFC
2FFFE0008001
0FFFFFFF7FFD
3C001000BFFC
3C003FFF3FFC
14003FFF8003
000000014000
30003FFFFFFF
3FFFC0010002
340030007FFD
03FFC0004003
07FFD0008002
03FFD000FFFE
3C005000BFFD
34003FFF0003
13FFFFFF8005
33FFCFFF7FFB
38005FFF7FFF
3C0020010004
3BFFFFFFFFFE
08002FFF4000
30003FFEC002
3C003000FFFE
0BFFC0003FFF
100000008001
37FFF0008004
0FFFFFFF7FFB
000050007FFF
0C004FFFBFFF
38000FFFFFFD
3C001FFEFFFE
0C000000BFFF
000010013FFD
04005FFFBFFC
000020000002
000010000001
0C0030004000
2FFFDFFF3FFC
140030010003
3FFFD000FFFB
0C000000C004
2FFFD0004004
380030000005
13FFFFFF4004
3BFFEFFF0002
0C002FFF7FFE
3C003FFF8003
38004FFF3FFF
04003FFEC004
2C004FFFC005
0C0010004001
03FFCFFFBFFD
3C004000BFFE
2C003FFF4004
040020013FFC
03FFC0003FFD
0FFFE0004001
3FFFE0013FFE
340030000005
33FFCFFFC003
00005FFFBFFD
14001FFF8005
0C002FFF4004
33FFC0000000
300050014004
37FFC0003FFC
0FFFB000C002
07FFE0008000
30005FFF4004
0BFFBFFF7FFB
140030004002
08001000C004
08002000C002
3C002000FFFE
380010010003
30004FFF4002
380000014000
3FFFFFFF7FFD
13FFC0008004
0C0010014002
3C000FFF3FFC
0BFFDFFF4001
3BFFEFFF7FFD
380030014002
13FFF0003FFD
30002000FFFC
17FFF0010003
340010014002
100010017FFC
0C002FFFC004
07FFEFFEFFFC
30002FFF8003
07FFDFFFC005
13FFC0014000
07FFEFFF0001
34000FFF3FFE
37FFB0003FFF
04002FFF8003
0C0010007FFE
00004FFFFFFD
38001FFF7FFD
14005000C001
0FFFFFFFC003
100020010001
3BFFF0003FFD
30005000C001
3C0000007FFF
3FFFC0003FFF
33FFF000C000
07FFDFFF7FFF
3BFFE0003FFE
07FFEFFF7FFF
3BFFE000C005
37FFB000C000
13FFF0004001
0BFFDFFF4003
17FFC0014001
33FFCFFF8002
07FFC0003FFD
100040008003
040040014001
37FFFFFF0000
2FFFFFFF8001
00000FFF0003
040010004002
33FFF000C000
03FFE0003FFE
0BFFCFFFBFFF
13FFB0010001
03FFCFFF8004
14000FFF8003
13FFDFFF7FFC
0FFFEFFF8004
300000008000
3C002FFF3FFB
37FFE0010003
37FFCFFF4000
0FFFEFFFFFFC
000040007FFD
04003FFF3FFE
3BFFE0017FFC
0FFFC0008005
0C005FFF0003
13FFCFFEC001
37FFFFFFC003
0FFFE0008001
33FFC000FFFB
2C000000C001
13FFFFFFFFFD
3BFFFFFFC000
0FFFDFFF7FFD
04001FFFFFFC
0C005FFF8001
14004FFF4000
04004FFEFFFC
13FFEFFF3FFD
300010010003
34004FFF4000
10004000C000
34000FFFBFFD
2C004FFF0002
2C004FFF3FFC
34001FFF0004
07FFFFFFFFFE
340040010005
14000FFF0004
08004FFEFFFC
00004FFF0002
14003FFFC001
0BFFCFFF8003
30002FFEFFFE
040050008003
00000FFFFFFD
17FFDFFF3FFD
30002FFF4005
03FFDFFFFFFB
340020004000
04004FFEC000
3BFFC000BFFD
37FFB0008004
13FFCFFF0002
100040007FFB
08005FFF3FFE
380030000003
34003FFFC001
000010008002
13FFF0004003
2FFFE0007FFD
380030000002
03FFDFFF3FFC
0C003FFF8002
0FFFC0010004
3C0030008000
10001FFF3FFF
100010003FFC
37FFE0000004
0FFFF000FFFF
3FFFB000FFFF
17FFC0010004
2FFFC000FFFD
300030007FFE
000000007FFD
34003FFF0002
30002FFF7FFD
3BFFE0010002
0BFFE0007FFC
0C000FFF4000
0FFFD0008004
340040003FFB
17FFF0013FFF
30001FFF3FFC
3FFFFFFF0003
34004FFEFFFB
03FFE0013FFB
3FFFB0004001
30003000FFFC
08002FFFBFFC
38001FFF8004
2FFFC0004003
3BFFE0008003
0C0020003FFD
3BFFDFFF4002
080030003FFE
03FFC0014000
07FFFFFEC000
37FFC0014000
03FFD0013FFE
0FFFF0008001
03FFF0003FFB
2C001000C003
38000000BFFF
0C005FFFC000
0BFFF000C001
03FFC0000001
0BFFCFFEC003
000040013FFC
0C002000FFFE
04004000FFFF
14002000BFFE
3C005FFF0003
080050003FFE
07FFEFFF7FFE
04000FFF3FFF
0BFFD0004005
13FFD0003FFC
10000FFF0002
04000FFFC003
34000FFF0002
07FFEFFFBFFC
14003000FFFD
33FFFFFF4004
2C0040003FFF
30003FFFFFFF
33FFF0010004
07FFF000BFFD
14000FFF3FFC
3FFFCFFF3FFD
07FFF0004005
38000FFFFFFE
34002FFF0003
080000003FFC
0BFFB0013FFB
07FFEFFF7FFF
08000FFEC004
04002FFF4002
07FFCFFF0002
08000000BFFE
13FFCFFF8002
2FFFFFFF0000
37FFB0003FFF
34000000BFFF
2C0000000002
3BFFBFFFBFFE
0FFFD000C004
040020004000
100020000002
3FFFEFFF3FFF
38001000C001
040010007FFB
03FFF0000001
10000FFFBFFD
2FFFDFFF3FFD
00004000FFFD
00001FFEFFFF
3FFFEFFEC001
37FFDFFEFFFF
33FFEFFEFFFE
3FFFC0010000
0FFFC0013FFC
3BFFF0010001
080020000003
3C005FFF8004
07FFF000FFFC
000000004003
37FFEFFFC003
100040010002
13FFF0007FFE
37FFFFFEC002
3BFFCFFFBFFC
03FFF0000000
14003000C005
07FFDFFF8001
37FFC0007FFE
0C0050017FFB
040040003FFB
30001FFF0001
000050010003
3BFFE0003FFB
14000FFF0004
33FFB0003FFE
0C004000FFFE
03FFDFFFC001
13FFE0017FFF
300010008001
340000008005
2FFFB000C003
04004000C003
07FFFFFF7FFF
0FFFE0007FFE
13FFC0014005
2FFFFFFF3FFE
30003000C001
03FFE0010001
3BFFFFFF4003
0BFFC000C003
080040013FFF
380020010005
100020000000
08001000BFFD
0BFFFFFF7FFE
0C0010003FFD
04002FFEC002
000010013FFE
3FFFC0008000
38000FFF4000
040030010002
0C003FFFFFFD
080010013FFB
0FFFD000C002
040050010005
13FFB0000004
00003FFFFFFC
0C0000004002
07FFD0003FFD
2C002FFFC001
2C0020013FFF
3BFFC0013FFF
03FFFFFF8001
140050007FFD
07FFFFFF8000
07FFD0007FFF
2FFFDFFF3FFE
17FFBFFFC003
2FFFF000C002
2C003000BFFE
13FFE000C000
07FFC0003FFC
33FFCFFFC004
3C0010013FFC
0C0020000001
3C0040008004
30001FFFFFFD
03FFE0004004
3FFFCFFFFFFB
340040003FFD
07FFD0008005
08002FFFFFFF
17FFC0013FFD
04001FFF4004
0C0050003FFB
10003FFF8005
33FFEFFFC001
14002000C004
37FFE000C004
37FFEFFEFFFD
0FFFF0000002
14004000BFFB
37FFC0004000
07FFBFFF0005
30004FFF4004
30001000BFFC
2FFFCFFF8002
100000000003
340010008003
300040007FFD
380000013FFC
03FFC0004004
34005FFF7FFE
08000FFFBFFF
0FFFB0008000
37FFD0008002
03FFC0013FFB
3FFFD0003FFD
0BFFE0004004
04004FFF3FFE
30004FFFFFFD
0FFFFFFF0001
33FFDFFF0000
07FFD0010000
100020017FFF
380050008005
17FFB000C000
37FFDFFF8001
10004FFFC003
340050013FFC
3FFFF000C005
340050003FFF
3C004FFFFFFE
0FFFEFFF7FFE
33FFC0003FFE
080010008003
340020000003
37FFEFFFFFFE
3BFFB0008003
3FFFF0003FFE
10001FFF4002
37FFEFFFBFFC
3C0020014005
07FFFFFFC002
3FFFF0000000
10000FFFC002
00003FFEC004
34000FFFC003
17FFB0013FFC
04002FFF7FFC
13FFE0008004
00004FFEC004
14003FFF0000
13FFD0004002
0BFFF0004004
2C005FFF0003
03FFB0017FFF
08001FFF7FFE
0FFFBFFEFFFC
2FFFD0010001
37FFE0010004
33FFC000C000
07FFE0014005
37FFCFFFBFFE
08001FFFC003
0FFFE0004000
30004FFEC003
0BFFF000FFFD
04002000C001
17FFD000FFFB
080000000002
13FFE0007FFE
13FFC0007FFB
13FFFFFEC001
340000000005
30004000FFFD
38004FFF0001
17FFEFFF0003
37FFEFFF8005
30003000C001
00003FFFFFFF
34005FFF7FFE
13FFEFFFFFFE
00004FFF0005
03FFCFFF7FFD
17FFEFFF8003
0FFFD0003FFF
0FFFD0004003
0BFFFFFF3FFB
300040004000
3C0020010005

