18005
77FFF
0C004
6BFFB
08005
20006
68005
04004
10007
14004
23FFD
1BFFF
68003
6C008
7FFFB
6FFFC
7C003
1BFFA
14002
63FFB
6FFFE
7BFFF
03FFA
18004
0C007
14004
60007
20003
0C006
00005
74000
67FFB
78000
68004
0C003
0BFFC
68006
0BFF9
7C003
64003
77FFF
00003
6BFFC
08006
73FFF
6BFFF
78000
14006
78001
0FFFF
70003
64005
7FFFE
60002
6C005
1BFFB
64002
74007
63FFD
0BFFD
64006
67FFD
70002
13FFD
7BFFC
17FFD
6C008
78003
13FF9
00005
68006
74000
70001
6C001
70000
7BFFF
6FFFE
7FFFB
77FFD
1C005
6C003
60002
0BFFA
77FF8
6FFFD
7BFFF
70006
04008
7C001
78008
07FF9
78007
10001
14006
1BFF8
10006
18003
73FFE
63FFF
77FF9
77FFF
64003
6C005
17FFB
07FFA
20008
78000
1C004
10000
70007
7FFFC
14000
00007
63FFA
13FFB
70005
1FFFE
7C003
70000
13FF9
7BFF8
6FFFB
6BFFF
03FFF
1C001
68007
77FFB
00001
7C003
6BFFC
20007
23FFB
6C001
78005
77FFC
00006
7BFF9
78006
7C007
77FFB
04004
6C007
68002
17FFD
07FFF
14003
6C000
10005
7BFFC
67FF8
23FFA
14002
74006
6C005
7FFFD
0C007
14001
08004
7BFFF
17FFA
6BFFB
03FFB
04004
73FF9
6BFFD
00000
04002
68002
1C001
00006
78007
73FFF
63FFF
0C000
73FFB
1FFFC
00001
73FFA
1C007
7FFFD
18004
70003
1C004
08002
7FFFD
78002
04005
78000
0C003
7BFFE
74006
1C006
70004
68006
1FFF8
70006
74006
64006
1BFFB
13FFD
18001
13FFD
0BFF9
7FFFC
1FFFF
63FFA
18002
04004
73FF9
08002
67FFB
78003
7FFFE
07FFC
13FFB
78007
0FFFC
13FFC
67FFB
6BFF8
08002
70007
67FF9
00008
18003
0BFFB
1FFFC
18004
70006
0C002
14002
7FFFC
68002
04000
00001
03FF8
0BFFE
7BFF9
73FF9
13FFA
67FF8
78002
07FFC
0C001
04008
00004
03FF9
23FFE
0FFFF
1C000
73FF9
67FF9
0BFFB
1FFFE
7BFFB
1FFF9

