37FFC
30005
28001
33FFB
3FFFF
00001
08000
2FFFC
08006
0FFFF
3C005
0C004
0C003
30000
0C003
38007
07FFC
10005
2FFFB
1BFFA
33FFB
3C001
2FFFB
38005
10006
2C000
14003
37FFC
33FFC
1BFFF
0BFFE
30005
34005
10000
3C005
1BFFC
30002
2FFFB
0BFFE
04006
03FFF
3BFFC
30002
10002
2C005
0C003
17FFD
0BFFE
08001
10004
0FFFA
0BFFF
33FFA
13FFD
04005
34000
38002
34001
2C003
2C001
3C001
34005
0BFFD
30003

