3C003
3BFFB
10000
33FFC
3C006
3C003
0BFFC
07FFB
3FFFE
3C004
14004
00000
0BFFA
0C002
2C005
0C005
0FFFC
3FFFE
2BFFC
38003
2C006
0C003
3C002
38000
14000
3C006
33FFB
07FFD
3FFFD
3C003
3C005
37FFE
03FFB
00001
14006
3C002
2BFFF
0C002
10000
0C000
08000
17FFA
33FFE
2BFFB
0FFFE
0FFFE
28000
30004
0C004
38000
30000
33FFE
3BFFB
0C002
0C003
2C001
2C002
2BFFC
0FFFC
17FFD
18001
37FFF
34001
14006
03FFC
28004
04001
00004
28001
3BFFA
2C005
08003
14003
3BFFE
3BFFB
04002
07FFD
0C003
13FFC
37FFD
28002
3C004
0FFFA
08003
3FFFC
30001
07FFB
37FFA
38004
0C003
37FFF
30002
34004
0FFFA
37FFD
2FFFD
30005
2FFFD
14001
38002
2FFFF
33FFD
2BFFE
30003
3C000
10002
3FFFD
30001
37FFA
2FFFA
04004
2FFFD
3C005
3BFFD
38006
13FFD
2FFFC
2FFFF
30001
0C004
37FFB
38002
04005
00002
38001
30004
08001
17FFF
00003
18001
17FFE
3C004
30006
3FFFE
30005
30004
3BFFD
34003
3C002
2C003
2C000
00004
0BFFE
03FFA
07FFE
08002
38005
30001
2C000
08005
14004
0C001
17FFD
30005
0FFFD
2C000
3BFFB
34001
28001
2BFFE
0BFFC
0BFFB
2FFFB
18002
00002
03FFF
03FFD
3BFFB
28006
2C004
04000
0FFFF
0C000
0BFFF
10001
33FFB
38005
07FFD
13FFE
2C002
10005
38001
08006
17FFB
14005
3C003
0C004
0C004
14001
08005
0FFFF
2C002
34000
30002
3BFFA
30005
0C002
34005
2FFFE
38001
14004
07FFF
30000
30000
13FFD
34005
37FFE
0BFFE
38004
18003
2C004
2FFFB
1BFFC
0BFFD
38002
38005
10005
10006
07FFD
38004
38005
38003
2BFFE
00003
37FFB
0BFFB
00006
2C001
3BFFE
08003
0C002
28005
03FFB
14003
10006
33FFE
2C001
10000
03FFB
38002
04004
33FFD
04003
37FFF
0FFFD
04001
2C006
2FFFB
2C000
30000
07FFC
2C004
14002
0BFFD
00004
38003
0FFFF
17FFC
3BFFB
07FFF
2BFFA
0C005
10002
00001
00003
37FFE
0C002
1BFFB
10004
38005
38001
3FFFB
3FFFB
0BFFE
10004
2BFFB
00006
2BFFD
2FFFF
10006
0FFFB
30001
2C001
38004
3BFFF
38002
30006
3C005
13FFE
0FFFB
17FFD
13FFC
08002
2BFFC
3FFFE
30000
33FFA
37FFB
3C003
0C004
03FFC
30001
03FFF
0BFFB
13FFD
37FFD
28004
1BFFE
3C005
08001
3FFFA
33FFB
3C001
14001
08002
17FFA
37FFC
0FFFD
2FFFC
38005
0FFFF
2C002
04000
37FFE
33FFE
2C003
10003
3C004
38003
14002
00002
0FFFB
33FFE
00004
3BFFC
07FFC
3FFFF
13FFD
0BFFC
33FFE
2C005
3BFFA
37FFC
33FFE
03FFB
17FFA
34000
14003
14005
37FFF
03FFB
30001
17FFB
37FFB
37FFA
3BFFA
00000
0C003
2FFFC
3FFFB
04000
14003
00001
08002
08002
10005
30001
3BFFF
0C004
3C002
30005
2FFFA
30001
07FFE
2FFFE
2C003
0BFFE
08005
38006
10001
0FFFB
03FFB
38001
3FFFA
33FFE
34006
2BFFB
08003
08001
10003
10001
0C000
0FFFF
00004
3FFFB
3BFFC
38002
10001
2FFFB
2FFFD
00000
17FFD
13FFD
0C006
2FFFA
37FFC
0C004
04000
0BFFB
28003
04003
13FFB
04003
30000
14002
17FFC
00005
38002
30001
18003

