3FFF
3FFF
0001
2001
3FFF
2000
2000
0000
7FFF
7FFF
0000
0000
6000
7FFF
6000
6000
1FFF
3FFF
2001
2001
2000
2001
2000
2000
0000
0000
2001
2001
1FFF
2000
0000
0000
0000
7FFF
6000
1FFF
0000
6000
6000
2000
6000
6000
2000
2001
6001
6000
0000
2001
3FFF
6000
7FFF
6000
1FFF
0000
0000
2001
7FFF
0000
2000
2001
2000
0001
2000
0001

