2001
0000
2000
0001
0000
2000
0000
0000
0000
0001
6000
0000
0000
0000
6000
0001
7FFF
2000
2001
2000
6000
6001
3FFF
2000
0000
2000
6000
2001
0000
2001
0001
0001
0000
0000
1FFF
0000
2000
0000
1FFF
7FFF
7FFF
6000
0000
6000
2000
6000
2001
6000
6000
0001
7FFF
6001
3FFF
6000
2000
2001
2000
0000
0000
0000
1FFF
0000
6000
3FFF
6000
6000
6000
0000
0001
2001
1FFF
0001
6001
0001
6000
7FFF
0001
6001
6001
2001
0000
3FFF
3FFF
3FFF
0000
3FFF
1FFF
2001
6000
6000
0001
2000
2000
2000
0001
1FFF
6001
0000
0000
0000
0001
7FFF
6000
1FFF
6000
0001
0000
2001
0000
3FFF
6001
0000
0000
6000
0000
1FFF
1FFF
1FFF
3FFF
0001
7FFF
2000
0001
2001
1FFF
0000
6001
2001
1FFF
6000
7FFF
6000
1FFF
2000
6000
0000
3FFF
6001
0000
6000
0001
0001
2000
6001
6002
6000
0001
1FFF
1FFF
1FFF
2000
0000
6001
0000
2001
2001
0000
2001
2000
6000
6000
2000
3FFF
0000
6000
6000
7FFF
2001
0001
0001
2000
3FFF
0001
0001
6000
0000
0000
0001
3FFF
2001
2000
6001
0000
6000
6000
1FFF
0001
0001
0000
0000
6000
2001
2000
0000
1FFF
3FFF
2000
1FFF
0000
0000
6000
2000
0000
7FFF
1FFF
1FFF
0001
2000
0000
2000
7FFF
0001
6001
3FFF
6001
1FFF
2001
1FFF
2000
6000
0001
0000
0000
7FFF
0000
6001
3FFF
2000
2000
3FFF
0001
0001
6001
0001
2000
2001
0000
0000
1FFF
0000
3FFF
0001
7FFF
2001
2001
0000
6000
0000
6000
6001
1FFF
1FFF
6001
2001
0001
6001

