20000008003FFE000
00000000004000000
00000000000000000
00000000000000001
60000000000000000
00000000000000000
00000000000000000
00000000000001FFF
00000000000000000
00000000000002000
00000000004000000
00000000000000000
00000000000000000
00000000000000000
00000000000000000
20000000000002000
00000000000000001
00000000000000000
00000000000000000
00000000000000000
00000000000000000
00000000000000000
00000000004000000
00000000000002000
00000000000000000
20000000000002000
00000000000000000
00000000004000000
0000FFF8004000000
00000008000000000
00000000000000000
00000000000000000
00000000000000000
00000000000002000
00000000000000000
0000FFF8004002000
00000000000002000
00000000000000000
00000000000001FFF
00000000000000000
00000000000000000
00000000000000000
00000000000000001
20000000000000001
0000FFF8000000001
00000000000000000
00000008000000000
60000000000001FFF
00000000000000000
00000000000000000
00000000000002000
00000000000000000
00000000004000000
00000007FFC000000
00000007FFC000000
00000008000000001
00000000000000000
00000000003FFE000
20000000000000000
00000000000000000
00000000000000000
00000000000000000
00000000000002001
00000000000003FFF
0000FFF8000001FFF
20000000000000000
00000000000000000
00000000000000000
00000000000000000
00000000000000000
00000000000000000
60000000004002000
00000000000000000
00000000000000001
00000000000000000
00000000003FFE000
00000008003FFE001
60000008000000000
00000007FFC000000
00000000000000000
60000007FFC001FFF
20000000000000000
00000000000000001
00000000000000000
00000000000000000
60000000000002000
00000000000001FFF
00000008000000000
00000008000000000
20000000000000000
00000000000000000
00000000000000001
00000000000002000
20000007FFC000000
0000FFF8003FFE001
20000000004000000
00000008000000000
00000000000000000
00000000000000000
00000007FFC000000
00000000003FFE000
00000008000000000
00000008000002000
00000000004000000
00000000000000000
20000000000002000
20000000004000000
60000000000000000
20000000003FFE000
00000000000000000
0000FFF8000000000
60000000000002000
00000000000001FFF
00000000000002000
00000000003FFE000
00000000000000000
00000000004000000
00000000000001FFF
00000000000002000
20000000000002001
20000000000000000
60000008000000000
20000007FFC002000
00000000000000000
60000008000000000
00000000000002000
20000000000000001
00000000000000000
00000000000000000
00000000004001FFF
0000FFF8000000000
60000000000000000
20000000000000001
00000000004000001
00000000000000000
20000000000000000
00000000000001FFF
00000000000000000
00000000000001FFF
00000000000002000
00000000000000001
00000000000000000
00000007FFC000000
00000000000000000
00000007FFC000001
00000000000000000
00000000000000000
00000000004000000
60000000000001FFF
00000000000000000
2000FFFFFFC000000
00000000000000001
00000007FFC000000
00000000000002000
20000000000000000
00000000000000000
0000000FFFC002000
60000000000000000
00000000000002000
00000000000000000
00000000000000000
00000000000000001
00000000004001FFF
00000000003FFE000
60000000000000000
60000008004003FFF
00000008004000000
00000007FFC000001
00000000000000000
00000000000000000
00000007FFC000000
00000000000000000
00000000000002000
00000000000000000
00000000000000000
00000000000000001
00000000000000000
00000007FFC000000
20000000004003FFF
20000007FFC000000
00000000000000000
00000000000000000
00000000000000000
0000FFF8000002000
0000FFF8000000000
60000000000000000
00000008000000000
00000000000002001
00000000000000000
00000000000000000
00000000000000000
00000008000002000
00000000000000000
00000000000000000
00000008000000000
60000000000000000
60000000000000000
00000000003FFE000
00000007FFC000000
00000000000000000
00000000000002000
00000000000000000
00000007FFC000000
00000008000000000
00000000000000000
20000000000000001
0000FFFFFFC000000
00000000004000000
00000008000000000
00000008004000000
00000000000000000
00000000000000000
20000000000000000
00000000000000000
00000000000001FFF
00000000000000000
00000008007FFE000
20000000004000000
20000008000000000
00000000003FFE000
60000000000001FFF
00000008000000000
00000000000000000
00000008004000000
00000000000000001
00000008000000000
00000000000000000
00000000000000000
00000000000000000
20000000000000000
0000FFF8000000000
0000FFF8000000000
00000008004000000
00000000000000000
00000000000000000
00000000000000000
00000000000000000
00000008000000000
00000008000000000
00000000000000000
00000000000000000
1FFF0000000000000
00000007FFC000000
00000000000000001
00010008000002000
00000000004000000
00010008000000000
3FFF0000000000000
00010000000000000
00000000000000000
00000000000002000
00000008000000000
00010000000000000
00000000000000000
00000000000000000
00010000000000000
0000FFF8004000000
00000000000000000
00000000000000000
00000000000000000
00000000000000000
00000000000000000
00000000000000000
00000000000000000
00000000000000000
00000000000000000
00000000000000000
00000000000001FFF
60000000000002000
20000000000000000
00010000004000000
0001FFF8007FFE001
00000000000002000
0001FFF8004000000
00010007FFC000000
60000000000000000
1FFF0000004000000
00000000000000000
60000008000000000
0000FFFFFFC000000
20000000003FFE000
0000FFF8000000000
00000000000000000
00000000000000000
00010008000000000
00000008000001FFF
00000000000000000
00000000000000000
00000000000000000
00000000000000000
60000000000000000
0000FFF8000000000
60000008000000000
20000000003FFE000
00000000000000000
00000008003FFE000
00000000000000000
60010000000000000
00010000000000000
00000000000000000
00000000000000000
00000008000000000
00000008000000000
00000000000002000
0000FFF8000000000
1FFF000FFFC000000
00010000000000000
0000FFF8000000001
00000000000000000
00000000000000000
00000000000000000
00000000004000000
0000FFF8000000000
00000000000000000
00000000003FFE000
00000008000001FFF
20000007FFC000000
00000000000000000
0000000FFFC002000
00000000000000000
1FFF0000000000000
1FFF0000000002001
00010000000002000
20000000007FFE000
1FFF0008000000000
2000FFF8000000001
00000000004000000
00000000000000000
00010000004000000
00000007FFC000000
20000000000000000
00000007FFC000000
00000000000000001
00000000000000000
0000000FFFC000000
20000000000000000
00000000004000000
00010000004000000
00000000000000000
00000000000002000
60000007FFC001FFF
0001FFFFFFC000000
60000000004000001
00010000000002000
00000000000000000
20000000000000000
20000008004000000
00000000000000000
00000000003FFE000
00000000000000000
00000000000000000
00000007FFC000000
00000008000000000
20000008004000000
00000000000002001
00000000000000000
60000008004002000
00000008000000000
00000000003FFE000
60000000003FFE000
00000008000000000
00000007FFC000000
00000008000002000
00000007FFC000000
1FFF0007FFC000000
00000000000000000
00000000000000000
00000000000000000
00000000000000000
0000000FFFC000000
00010000000000000
00000000000000000
00000008004000000
00000000000000000
00000000000000000
00000000000000000
00000000000000000
00000000000000000
00000000000000000
00000000000000000
00000000000002000
00000000000000000
00010000000000000
00000007FFC000000
00000000000000000
00000008004000000
00010000000000000
00000007FFC000000
00000008000002000
00000000000000000
00000000004001FFF
00000000004000000
0000FFF8004000000
1FFF0000000000000
00000008000000000
00000000004000000
00000000000000000
00010000000002000
00000000000000000
00000000000000000
0000FFF8000000000
00010000000000000
00000000000000000
00010000004000000
00010000000000000
00000007FFC000000
00000000000000000
00000000000000000
00010000000000000
00000000000000000
00000007FFC000000
1FFF0000003FFE000
00010000000000000
00000000004000000
00000007FFC000000
00000000000000000
00000000000000000
00000000000000000
00000008000000000
00000000000000000
00000000000000000
00000000004000000
00000000000000000
00000000000000000
1FFFFFF8000000000
00000000000000000
00000008004000000
00010008000002000
00000000000000000
00000000000000000
00000000000000000
00000007FFC000000
00000000000000000
00000000000000000
00000000000000000
00000000000000000
00010000000000000
00000000000000000
0000FFF8000000000
00000000000000000
0000FFF8000000000
00000000000000000
00000000004000000
00000000000000000
00000000000000000
00000000000000000
00000000000000000
00000000000000000
1FFF0000000000000
00000000000000000
0000FFF8000000000
00000000000000000
00010000000000000
00000000000000001
00000000000000000
00000000000000000
00000007FFC000000
1FFF0000004000000
0000FFF8003FFE000
00010000000000000
00010000000000000
00000000000000000
00000000000000000
00000007FFC002000
00000000000000000
00000000000000000
00000000003FFE000
00000000000000000
00000000000000000
00000008000000000
00000000000000000
00000000000000000
0000FFFFFFC000000
00000000004000000
00000000004000000
00000000000000000
00010008000002000
1FFF0000000000000
00000000000000000
00000008000000000
60000000004000001
00000000000000000
00000008003FFE000
60010007FFC000001
00010000000000001
00000000004000000
00000000004000000
00000000000002000
00010000004000000
00000000000000000
00000000000000000
20000007FFC000000
00000000000001FFF
1FFF0000004002000
00000000000000000
00000000000002000
00000000000002000
00000000000000000
00000000000002000
00000008000000000
00000000000001FFF
00000000000000000
00000000000000001
1FFF0007FFC000000
00010000003FFE000
1FFF0000000000000
00000007FFC002001
60000007FFC001FFF
00000008000001FFF
0000FFF8000000000
00010000000000000
00000000000000000
00000000003FFE000
00000000004001FFF
00000008000000000
20000000000000000
0000FFF8000000001
20000000004001FFF
00000000000003FFF
00000000004001FFF
00010000004000000
00010000000002000
00000000000002000
00000008003FFE000
00000000000000000
00000000000000000
00000000000003FFF
00000000007FFE000
00010007FFC000000
00000000000000000
00010000000000001
00010000000000000
00000000003FFE000
00000000000000000
00000000000000001
20000000004001FFF
00000000000000000
00000000003FFE000
1FFF0000000000000
00000000000000000
00000000000000000
00000000000000000
00000000000000001
00010008003FFE000
1FFF0000004000000
00000000000000000
00000000000000000
00000000000001FFF
00000000000000000
00000000000000000
00000000000000000
20010000000000000
00000000000001FFF
00000000000000000
00000000000000000
00000000000000000
00000007FFC001FFF
00000007FFC000000
00000007FFC000001
00000000000000000
00000007FFC000000
00000000000000000
00000007FFC000000
00000000000000000
00000000000000001
00000000000000000
00000000000000001
00000000004000000
0000FFF8000000000
00000000000002000
00000000000000000
00000008000000000
00000008000000000
60000000003FFE000
00000000000000000
00000000000000000
00000000000000000
20000000000000000
00000000000000000
00000000000000001
00000008000000000
60000000000002000
00000000000000000
20000007FFC000000
20000000000000001
00000000000000000
00000000000000000
00000007FFFFFE000
20010007FFC000001
00000000004000000
20000000000000000
60000000004000000
00000000000000000
00000000000000000
60000000000000000
00000000000000000
00010000000000000
00000000000000000
00000000000000000
00000000003FFE000
00000008000000000
00000000000000000
00000000000000000
00000000000000000
00000000000000000
00000000003FFE001
00000000004002000
00000000000000001
20000000000000000
0000FFF8003FFE000
00000000000000001
00000000000002000
00000000000000000
00000000000002000
00000000000000000
20000000003FFFFFF
6000FFF8000000000
00000000000000000
00000000003FFE001
00000000000000000
20000000000001FFF
00000000000000000
00000000000000001
0000FFF8000000001
20000008004001FFF
00000000000000000
60000000000000000
00000000000000000
20000007FFC000000
00000000000000000
00000000000002000
00000000000001FFF
00000000000001FFF
00000000000000000
00000000000000000
00000007FFC000001
00000000000001FFF
00000000000002000
60000008000000000
2000FFFFFFC000000
20000000004000000
00000000000002000
60000000000000000
60000000000000000
20000000000000000
2000FFF8003FFE000
00000000003FFE000
00000008000002000
00000000000003FFF
00000000000000000
20000000000000000
00000000000000000
0000FFF8000001FFF
00000008000000000
20000000000000000
00000000000001FFF
00000000000000000
00000000000000000
00000000000000000
0000000FFFC002000
00000000000000000
00000008000002000
00000000000002001
00000000000002000
00000000004002000
00000000000000000
20000000004000000
60000000000000000
00000000000000000
00000000000000000
00000000000000000
00000000000001FFF
2000FFF8000000000
00000000000000000
00000000000001FFF
00000000000002001
60000008000000000
00000000003FFE000
00000008000000000
00000000000000000
0000FFFFFFC000000
0000FFF8003FFE000
00000000000002000
00000000003FFE000
00000007FFC000000
00000000000000000
00000000000000000
00000000000000000
00000000000000001
00000000000000000
00000000000000000
00000000004000000
00000000004000000
00000000000000000
00000000000000001
00000000000001FFF
00000000007FFE000
00000000000000000
20000000000000000
00000000004002000
00000000000000000
00000000000000000
00000000000000000
20000000000000000
00000000000000000
00000000000000000
00000000000000001
00000000000000000
00000000003FFE001
00000000004000000
00000000000002000
00000000000000000
00000000000000001
00000000000000001
2000FFF8000000000
00000000000000000
00000000000000000
00000000000000000
00000000004000000
00000000000000000
00010000000000000
00000000000000000
00000000000000000
20000000000000000
0000FFF8000000000
0000000FFFC000000
00000000004001FFF
00000000000000000
00010000000000000
0000FFF8000000000
00010008000002000
1FFF0000000000000
60000007FFC001FFF
00000000000000000
00000000000000000
6000FFF8003FFE000
20000000000000000
00000000000000000
60000008000000000
00000000000002000
1FFF0000000000001
00000000000000000
00000000004000000
00000000000000000
00000000000000000
00000008000000000
00000008000003FFF
00000000000000000
00000000000000000
1FFF0008000000000
20000000004000000
00000000000000000
00000000000001FFF
1FFF0008004000000
00000000000000000
00000008000000000
1FFF0000003FFE000
60000000000000000
00000008000002000
00010000000000000
20000008003FFE001
20000000000000000
00000008000000000
00000000000000001
00010000000000000
00000000000000001
20000000000000000
00000000000000000
00000000000000000
00000000000000000
00000000003FFE000
00000000000000000
00000000000002000
00000000000000000
00000000000002000
00000000000000000
00000000000000000
0000FFF8000000000
60010008000000000
20000008003FFE000
00000000000000000
00000000000000001
20000000000000000
00000008000000000
00010000007FFE000
7FFF0000003FFE000
00000000000000000
00010008000000000
00000000000000000
00000000000000000
00000000000000000
00000000000000000
00000000000000000
00000000000000001
20000000000000000
60000000000000000
00000007FFC000000
1FFFFFF8000000000
00000000000000000
00000000000000000
00000000000000000
60000000000000000
20000000004000000
20000000000000000
20000000003FFE000
00000000000001FFF
20000008000001FFF
0000FFF8000000000
60010000000000000
00010000000000000
00000000000002000
00000007FFC000000
00000000000000000
00000000000000000
00010000000000000
00010008000000000
00000000000000000
00010000000000000
00010000004000000
20000000004000000
00000007FFC000001
00000000000002000
20000000000002000
00000007FFFFFE000
20010000004000000
00000000000000000
00000000000000000
20000000000000000
00010000000000001
2000FFF8000000000
00010000007FFE001
1FFF0000000000000
00000000000000001
00000008004000000
60000000000000000
00000000000000000
60000000000000001
00000007FFC000000
00000008000000000
00010000004000000
00000000000000000
00000000000000001
60000008000000000
20000000000000000
20000008000000001
00000000000000000
00000000000000000
20000000000000000
60000008000000000
20000000004000000
00000000000000000
00000000000000000
00000000000000000
60000000000000000
00000000000000000
00000000000000000
20000000000000000
00000000000000000
00000000000000000
60000000000000000
00000000000000000
00000000000000000
0000FFF8000000000
20000000000000000
6000FFF8000000000
00000000000000000
00000000000000000
00000000000000000
00000000000000000
00000000000000000
0000FFF8000000000
00000000000000000
60000000000000001
00000000000000000
2000FFF8000000000
00000000000001FFF
00000000000000000
0000FFF8000000001
00000000000000000
20000000000000000
00000000000001FFF
00000000000000000
20000000000000000
00000000000001FFF
00000000000000000
00000008000000000
00000000000000000
60000000000000001
00000000000000001
00000000000000000
00000000000000000
00000008000000000
00000000000000001
00000000000000000
00000000000000000
0000FFF8000000000
00000000000000000
0000FFF8000000001
00000000000001FFF
00000000000000000
00000000000000000
00000000000000000
20000000000000000
00000000000000000
0000FFF8000000001
00000000000000000
00000000000000000
00000000000000000
00000000000000000
00000000000000000
00000000000000000
00000000000000000
00000000000000000
20000000000001FFF
00000000000000000
00000000000000001
00000000000000000
20000000000000000
00000000000000000
00000000000000000
20000000000000000
00000000000000000
0000FFF8000000000
00000000000000000
0000FFF8000001FFF
6000FFF8000000000
00000000000000000
00000008000000001
00000008000000001
00000000000000000
0000FFF8000000000
00000008000001FFF
00000007FFC000000
60000000000000000
00000000000001FFF
00000000000000000
00000000000000000
00000008000000000
60000000000000000
00000000000000000
00000008000000000
00000000000000000
00000000000000000
20000008000000000
20000000000000000
00000008000000000
00000008000000001
20000000000000000
20000000004000000
00000000000000000
00000007FFC000000
00000000000000000
20000000000000000
00000000000001FFF
00000008000000001
00000000000000000
00000000000000000
00000008000000001
00000000000000000
00000000000000000
00000000004000001
00010000000002000
00010000004000000
00000000000000000
00000000000002000
00000000000000000
00000000000000000
00000000000002000
20000000000000000
00000008000002000
00000008000000000
60000000000000000
00000000000002000
00000000000002000
00000000000000000
00000000000000000
00000000000000000
00000000000000000
00000000000000000
00000000000000000
60000000000000000
00000000000000000
00000008000000000
0000FFF8000000000
00000000000000000
00000000000000000
20000000000000000
0000FFF8000000000
0000FFF8000000000
00000000000000000
00000000000000000
60010000000000000
00000000000000000
00000000000000000
20000000003FFE000
00000008000000000
1FFF0000000000000
00010000000000000
00000000000000001
00000000000000000
00000000003FFE000
1FFF0000000002001
00000008004000000
00000008000000000
00000000000000000
00000007FFC000000
00000000000002000
0000FFF8000000000
00000000000000000
00000000000000000
00000000000001FFF
0000FFF8000000000
00000000000000000
00000008000000000
00000008000002000
00000000000001FFF
00000000000000000
00000000000000000
1FFF0007FFC000000
1FFF0007FFC000000
00000000000000000
00000000000002000
00000000004000000
00000008000002000
00000000000000000
00000007FFC000000
0000FFF8000000000
00000000003FFE000
00000000000000000
00000000000000000
00000000000000000
6000FFF8000000000
20000000000000000
00000000000000000
1FFF0008003FFFFFF
00000000000002000
00000000003FFE000
00010000000000000
0000FFF8000000000
00000000000000000
6000FFF8000000000
60000000000000000
60000000000000000
00000008000002000
0000FFF8000000000
00000000000000000
00000000004001FFF
00000000000000000
0000FFF8000000000
00000000003FFE000
20010000000000000
00000000003FFE000
20000008000001FFF
6000FFF8000000000
00000007FFC000000
0000FFF8000000000
20000000000000000
00000000003FFE001
20000000000003FFF
00000000000000000
00000000000000000
00000000000000000
00000000004000000
00010000000002000
00000000000000000
00000000000000000
00000000004000000
60000000000000000
0000FFF8000000000
00000000000000000
00000000000000000
00000000000000000
00010000000002000
00000000000000001
00000000000000000
00000000000000000
00000000000000000
00000000000002001
20000000000000000
00000008000001FFF
00010008000000001
00000008000001FFF
00000000000001FFF
60000000000000001
00000000000000000
00000000000000000
00010000000000000
00000000000001FFF
00000000000000000
0000FFF8000000000
00000000000000000
00010000000000000
0000FFF8000001FFF
00000008000000000
00000000000000000
00000000000000000
7FFF0000000003FFF
00000000000000000
00000000000000001
00010000000000000
20010000000002000
00000000000001FFF
00000000000000000
00000000000000000
20000000000000000
00000000000000000
1FFF0000000000000
00000000003FFE000
00010000000000001
00010000000002000
0000FFF8000000000
00000000000000000
00010000000000000
00000000000000000
3FFF0000000002000
00000000000000000
20000000000001FFF
00000000000000000
00000008000000000
00000000000000000
00000000000000000
00000000000002000
00000000000000000
20000000000000000
00000000000000000
1FFF0008003FFE000
00000000000000000
00010000000000001
00000000000000000
00000000000000000
00000000000000001
20000000000000001
20010008003FFE000
20000000000002001
00000000000001FFF
00000000000002000
00000000000000000
00000008000000001
00000000000001FFF
00000000000001FFF
00000000000000000
0000FFF8000000001
00000000000003FFF
00000000000000000
0000FFF8000001FFF
00000000000000000
00000000000000000
00010000003FFE000
00000000000000000
00000000000000000
00000000000000000
00000000000000000
1FFF0000000000001
00000000000000000
20000000000000000
00000000000000000
20000000000000000
00010000003FFE000
00000008000000000
00000000000000000
60000008000000001
00000000000000000
00000000000000001
00000000000002001
7FFF0000000000000
00000000000002000
00000000000002000
00000000000000001
7FFF0000000000000
20000000000002000
00000000000000000
20000000000000000
00000000000000000
20000008000000000
00010000000000000
00000000000000000
1FFF0000000000001
20000008000000000
00000000000002000
00000000000000000
00010000003FFE000
00000000000000001
20000008000000001
00000000000000000
00000000000000000
00000000003FFE000
00000000000000000
00000000000000001
00000000003FFE001
0000FFF8000000000
60000008000000000
20010000000000000
00000000000000000
00000000000000000
00000000003FFE000
00000000000000000
20010000000000000
00000000000002000
20000000000000000
20000000000000000
00000000000000000
00000000000002000
00000000000001FFF
6000FFFFFFC000000
00000000003FFE001
60000008000000000
00000000000000000
00010000004000000
00000000000000000
00000000000000000
00000007FFC002000
20000007FFC000000
0000FFF8000000000
20000000000000000
00000000000000000
00000000003FFE001
00010008000000000
00000000000000000
00000000004000000
20000000003FFE000
00000000003FFE000
00000000000000000
00000000000002000
6000FFF8000000000
00000000000000000
00000008000001FFF
00010000000002000
00000000000000000
00000000000000000
00010000000000000
00000000000000000
20000000000000000
20000000000000000
00000000000002000
0000FFF8004000000
00000000004000000
00000008000000000
1FFF0008003FFFFFF
00000000000002001
00000000000000000
00000000000000000
00000008000002000
00010000000000000
60000000000000000
1FFF0000000000000
1FFF0000000002000
00000000000000001
00000000000000000
00000008000000000
00000000000000000
00010000000000000
00000008000000001
00000000000002000
00000000003FFE000
00000000004000000
00000000000000000
00000000000000000
00000007FFC000000
00000000000001FFF
00000000000000000
00000000000000000
00000000000000000
00000000000000000
00000000000000000
00000000004000000
00000008000001FFF
00000000003FFE000
00000000000000000
00000000000000000
00000000000000000
00000000000000000
00000008000000001
60010008000000000
00000000000000000
00000000004000000
00000000000002000
00000000000000000
00000000000000000
00000007FFC000000
00000000000000000
0000FFF8000000000
00000000000000000
00000000000000000
0001FFF8000000000
00000000000001FFF
00000000000001FFF
00000000000000000
00000000000000000
20000000000000001
20000000000000000
60000007FFC000000
1FFF0000000001FFF
00010000000000000
00000000000000000
00000007FFC002000
20000000000000000
2000FFF8000000000
00000000000000000
00000000000000000
00000007FFC001FFF
00000007FFC002000
00000000000000001
00000000000000001
20000000004000000
00000000004000000
2000FFF8000000001
20000000003FFE000
20000000000001FFF
00000000000000001
00000000000000001
00000000007FFFFFF
00010000000000000
00000007FFC000001
00000000000000000
00000000000000000
00000000000000000
00000000000002000
00000000004000000
00000000000001FFF
00000008000000000
00000008000000000
2000FFF8000000000
00000000000000000
60000008000002000
00000000000002000
00010000000000000
00000000000000000
00000008000000000
00010008000002000
00000008000000000
00000000000000000
00000000000000000
00000000000000000
20000000000000000
00000000000000000
00000000000000001
00000000000000000
00000000000000000
00000000000000000
00000000000000000
0000FFF8000000000
20000000000000000
00000000000000000
00000008000000000
00000000000000001
20000000003FFFFFF
00000007FFC000000
00000000000002000
00000000000000001
00000008000000001
00000000003FFE000
00000000003FFE000
00000000000000000
00000007FFC000001
00000000003FFE000
2000FFF8000000000
00000000000000000
20000000003FFE000
00000000000000000
20000000000000000
00000000003FFE000
00000000000000000
00000000000000000
0000FFF8000000000
00000000000000000
00000000000000000
00000000000002000
00000000000000000
20000000000001FFF
00000000000000000
00000008000000000
00000008000000000
00000000000001FFF
00000000000000000
00000008000000000
00000000000000000
00000000000000000
00000008000000000
00000000000000000
00000000000000000
00000000000000000
00000008000000000
00000000000000000
60010007FFC000000
00000000000000000
00000000000000000
00000000000000000
20000000003FFE000
00000000000000000
00000000000000000
00000000000000000
20000000000000000
20000000000002000
00000000000000000
00000000000000000
00000000000001FFF
2000FFF8004000000
00000000000000000
00000008000002000
00000000000000000
00000000000000000
00000000000002000
00000008000000000
60000000000001FFF
00000000000000001
00000008000000001
00000000000002001
00010000000000000
00000000003FFE001
00010000000000000
00000000000000000
0000FFF8000000000
1FFF0000000001FFF
00000000000000000
00000000000000000
00000000000000000
00000008003FFE001
00000000000000000
00000000000000000
00000000004002000
20000000000000000
00000008000000000
00000008004000000
3FFF0000000002000
60000000000000000
00000000000000000
20000007FFC000000
00000000000000000
00000000000000000
20000000004000000
20000000000000001
00000008000000000
00000000000000000
0000FFF8003FFE000
00000000004002000
00000000000000000
00000000000000000
00000000000002000
00000000000000000
20000000000000000
00000000000002000
00010000003FFE000
00000000000000000
00000000000000000
00010000000000000
00000000004001FFF
20000007FFC000000
00000000004000000
00000007FFC000000
00000000000000000
20000000000002000
00000000003FFE000
00000000000000000
00000000000000001
00000000000000000
00000000003FFE000
00010000004000000
00000000000000000
00000000000001FFF
00010000000000000
00000000000001FFF
00000000000000000
1FFF0000000000000
00000000000002000
00010000000000000
1FFF0000000000000
00010000000000000
00000000000002000
00000000004000000
00000000000000000
00000000000000000
00000000000000000
00000000000000000
00000000000000001
00000000000000001
00000000000001FFF
20000000004000000
00000007FFC000000
60000007FFC000000
00000000000000000
00000000000000000
60000007FFC000001
20000000004000000
00000000004000000
20000000004001FFF
20000000000000000
00000000000000000
00010000003FFE001
20000007FFC000000
00000000000000000
00010000004000000
00000000000000000
00000007FFC000000
00000000000000000
60000000000000000
00000000000000000
00000000000000000
00010000000000000
00000000004000000
00000000000000000
00000000000000000
20000000003FFE001
20000000003FFE000
1FFF0000000000000
00000000000000000
00000000000000000
00000000000000000
00000000000000000
00000000000000000
00000000000000000
00000000000000000
00000000000000001
60000000000000000
00000000004000000
00000000004000000
1FFF0000000000000
00000000000000000
00000000003FFE000
00010000000000000
00000000000000000
00000000000000000
00000000000000000
20000000000002000
00000000004000000
20000000004002001
20000000000000000
00000000000002000
00000000000000000
00000000003FFE000
00000000000000001
00000000000000000
00000000000001FFF
00010000000000000
00000000000000000
00000000000000000
20010000000000000
20000000000000000
00000000004001FFF
60000000000002000
20000000000000000
00000000000000000
00000000000000000
00000000000000000
20000007FFC000000
60010000004000000
1FFF0000000000000
20000000003FFFFFF
00010000000000000
00010000000002000
00000000004001FFF
00000000000001FFF
00000000000000000
20010000000002000
00000000000000000
00000000004002000
00000000000000000
00000000000000000
00000000004000000
00000000003FFE000
00000000000000000
00000008000000000
20000000000000000
00000000000000001
00000000000000000
00000000000000000
00000007FFC000000
00000000000000000
00000000000000000
00000000000000000
00000000000000000
00000000000000000
60000000004001FFF
00000000000000000
00000000000000000
00000000000000000
00000000000000000
60000000000000000
00000000000000000
1FFF0000000000000
00000000000000000
00000000004000000
00000000000000000
60000000000000000
20000000000000000
60000000000000000
00000000000000000
00000000000000000
00000008000000000
00000000000000000
00000008000000000
00000007FFC000000
60000000000000000
00000000000000000
00000000000000000
0001FFF8004000001
00000000000001FFF
00010000000000001
60000000000000000
00000000000002000
00000000000000000
60000000000000001
00000000000000000
20000000004000000
00000000004000000
00000000000000000
20000000000000000
00000000000000000
00000000000000000
00000000000001FFF
00000000000000000
00000000000000000
20000000000000000
20000000000001FFF
60000000000000000
00000000000000000
00000000000000000
00000000000000000
00000000000000000
00000007FFC000000
20000000000002000
00000000000000000
00000000000000000
00000000000000000
0000FFF8000000001
0000FFF8000000000
1FFF0000004000000
00010000000000000
00000000000000000
00000000000000000
00000000000000000
00000000000000000
00000000000000000
00000000000000000
1FFF0000000000000
00000008000002000
00000000000002000
00000008004000000
00000000000000000
20000000000000001
00000000000000000
00000000000001FFF
00000000000000001
00000000000000000
00000000003FFE000
00000000000002000
00000000000000000
00010000000001FFF
00000000000001FFF
00000008004000000
00000000000002000
00000000000000001
00000007FFC000000
7FFF0000004000001
00000000000002000
3FFF0007FFC000000
00000000000000000
60000008007FFE000
20000000000000000
00000000000000000
0000FFF8000000000
00000000000002000
20000008000000000
00000008000000000
00000000000000001
00010008000000000
0001FFF8000000000
00000000000000000
00010000000000000
00000000000000000
20000000000000000
60000000000000000
00000007FFC003FFF
00000000003FFE000
00000000000002000
20000000000002001
00000000000000000
00000000000000000
1FFF0000004000000
60000000000000000
60000000000001FFF

