04
01
17
1E
02
08
02
09
1D
0A
1A
05
07
0D
1F
04
0E
1E
07
0B
01
07
1C
00
00
1D
09
19
1E
00
00
1E
04
00
06
00
00
00
09
07
00
05
01
03
07
08
1F
0B
05
06
06
0F
08
0B
00
05
08
15
08
1D
02
04
19
03
07
09
06
1B
1E
01
06
04
09
1E
0A
0C
08
1E
1E
02
14
09
02
1F
1F
1B
1F
1E
01
0D
1E
16
08
08
07
1E
1D
1A
03
1D
01
1D
01
06
0A
0A
08
1F
04
05
07
0D
1F
09
0B
02
1C
04
03
09

