06
1F
02
08
04
0C
18
02
0B
03
02
1D
05
08
0D
0B
0C
1B
06
06
1D
1A
01
06
00
04
02
0C
1E
0A
1C
04
04
00
1F
1D
1D
1F
1D
03
00
1F
0C
0B
04
04
17
1E
07
05
1D
00
1E
0C
02
01
0D
1E
06
1B
15
04
01
06
08
04
1F
07
04
19
19
1E
0D
19
03
1B
04
0A
1F
1C
00
07
04
1F

